unsigned char model[] = {
  0x1c, 0x00, 0x00, 0x00, 0x54, 0x46, 0x4c, 0x33, 0x14, 0x00, 0x20, 0x00,
  0x1c, 0x00, 0x18, 0x00, 0x14, 0x00, 0x10, 0x00, 0x0c, 0x00, 0x00, 0x00,
  0x08, 0x00, 0x04, 0x00, 0x14, 0x00, 0x00, 0x00, 0x1c, 0x00, 0x00, 0x00,
  0x98, 0x00, 0x00, 0x00, 0xf0, 0x00, 0x00, 0x00, 0x20, 0x1b, 0x00, 0x00,
  0x30, 0x1b, 0x00, 0x00, 0x4c, 0x22, 0x00, 0x00, 0x03, 0x00, 0x00, 0x00,
  0x01, 0x00, 0x00, 0x00, 0x10, 0x00, 0x00, 0x00, 0x00, 0x00, 0x0a, 0x00,
  0x10, 0x00, 0x0c, 0x00, 0x08, 0x00, 0x04, 0x00, 0x0a, 0x00, 0x00, 0x00,
  0x0c, 0x00, 0x00, 0x00, 0x1c, 0x00, 0x00, 0x00, 0x3c, 0x00, 0x00, 0x00,
  0x0f, 0x00, 0x00, 0x00, 0x73, 0x65, 0x72, 0x76, 0x69, 0x6e, 0x67, 0x5f,
  0x64, 0x65, 0x66, 0x61, 0x75, 0x6c, 0x74, 0x00, 0x01, 0x00, 0x00, 0x00,
  0x04, 0x00, 0x00, 0x00, 0x90, 0xff, 0xff, 0xff, 0x0d, 0x00, 0x00, 0x00,
  0x04, 0x00, 0x00, 0x00, 0x08, 0x00, 0x00, 0x00, 0x6f, 0x75, 0x74, 0x70,
  0x75, 0x74, 0x5f, 0x30, 0x00, 0x00, 0x00, 0x00, 0x01, 0x00, 0x00, 0x00,
  0x04, 0x00, 0x00, 0x00, 0xc2, 0xe4, 0xff, 0xff, 0x04, 0x00, 0x00, 0x00,
  0x0f, 0x00, 0x00, 0x00, 0x6b, 0x65, 0x72, 0x61, 0x73, 0x5f, 0x74, 0x65,
  0x6e, 0x73, 0x6f, 0x72, 0x5f, 0x36, 0x36, 0x00, 0x02, 0x00, 0x00, 0x00,
  0x34, 0x00, 0x00, 0x00, 0x04, 0x00, 0x00, 0x00, 0xdc, 0xff, 0xff, 0xff,
  0x10, 0x00, 0x00, 0x00, 0x04, 0x00, 0x00, 0x00, 0x13, 0x00, 0x00, 0x00,
  0x43, 0x4f, 0x4e, 0x56, 0x45, 0x52, 0x53, 0x49, 0x4f, 0x4e, 0x5f, 0x4d,
  0x45, 0x54, 0x41, 0x44, 0x41, 0x54, 0x41, 0x00, 0x08, 0x00, 0x0c, 0x00,
  0x08, 0x00, 0x04, 0x00, 0x08, 0x00, 0x00, 0x00, 0x0f, 0x00, 0x00, 0x00,
  0x04, 0x00, 0x00, 0x00, 0x13, 0x00, 0x00, 0x00, 0x6d, 0x69, 0x6e, 0x5f,
  0x72, 0x75, 0x6e, 0x74, 0x69, 0x6d, 0x65, 0x5f, 0x76, 0x65, 0x72, 0x73,
  0x69, 0x6f, 0x6e, 0x00, 0x11, 0x00, 0x00, 0x00, 0x2c, 0x1a, 0x00, 0x00,
  0x24, 0x1a, 0x00, 0x00, 0x14, 0x0d, 0x00, 0x00, 0x04, 0x05, 0x00, 0x00,
  0xf4, 0x02, 0x00, 0x00, 0x7c, 0x02, 0x00, 0x00, 0xec, 0x01, 0x00, 0x00,
  0x9c, 0x01, 0x00, 0x00, 0x6c, 0x01, 0x00, 0x00, 0xbc, 0x00, 0x00, 0x00,
  0xb4, 0x00, 0x00, 0x00, 0xac, 0x00, 0x00, 0x00, 0xa4, 0x00, 0x00, 0x00,
  0x9c, 0x00, 0x00, 0x00, 0x94, 0x00, 0x00, 0x00, 0x74, 0x00, 0x00, 0x00,
  0x04, 0x00, 0x00, 0x00, 0x82, 0xe5, 0xff, 0xff, 0x04, 0x00, 0x00, 0x00,
  0x60, 0x00, 0x00, 0x00, 0x0c, 0x00, 0x00, 0x00, 0x08, 0x00, 0x0e, 0x00,
  0x08, 0x00, 0x04, 0x00, 0x08, 0x00, 0x00, 0x00, 0x10, 0x00, 0x00, 0x00,
  0x28, 0x00, 0x00, 0x00, 0x00, 0x00, 0x06, 0x00, 0x08, 0x00, 0x04, 0x00,
  0x06, 0x00, 0x00, 0x00, 0x04, 0x00, 0x00, 0x00, 0x01, 0x00, 0x00, 0x00,
  0xea, 0x03, 0x00, 0x00, 0x0c, 0x00, 0x18, 0x00, 0x14, 0x00, 0x10, 0x00,
  0x0c, 0x00, 0x04, 0x00, 0x0c, 0x00, 0x00, 0x00, 0xd6, 0x31, 0x32, 0x30,
  0xa9, 0xba, 0x59, 0x12, 0x02, 0x00, 0x00, 0x00, 0x02, 0x00, 0x00, 0x00,
  0x04, 0x00, 0x00, 0x00, 0x06, 0x00, 0x00, 0x00, 0x32, 0x2e, 0x31, 0x38,
  0x2e, 0x30, 0x00, 0x00, 0xee, 0xe5, 0xff, 0xff, 0x04, 0x00, 0x00, 0x00,
  0x10, 0x00, 0x00, 0x00, 0x31, 0x2e, 0x35, 0x2e, 0x30, 0x00, 0x00, 0x00,
  0x00, 0x00, 0x00, 0x00, 0x00, 0x00, 0x00, 0x00, 0xa4, 0xdf, 0xff, 0xff,
  0xa8, 0xdf, 0xff, 0xff, 0xac, 0xdf, 0xff, 0xff, 0xb0, 0xdf, 0xff, 0xff,
  0xb4, 0xdf, 0xff, 0xff, 0x1e, 0xe6, 0xff, 0xff, 0x04, 0x00, 0x00, 0x00,
  0xa0, 0x00, 0x00, 0x00, 0x52, 0x0a, 0x83, 0xbe, 0xb3, 0xaa, 0x8e, 0x3f,
  0x18, 0x80, 0x27, 0xbf, 0xaa, 0x7c, 0x96, 0xbf, 0xec, 0xb3, 0x63, 0x3e,
  0x9c, 0xd7, 0x04, 0x3f, 0x67, 0x94, 0xcc, 0x3f, 0xdc, 0x09, 0x30, 0x3f,
  0x42, 0x62, 0x69, 0xbf, 0x80, 0x80, 0x8d, 0x3d, 0x39, 0xbf, 0xcb, 0x3f,
  0x93, 0xef, 0x03, 0xbf, 0x2f, 0x5d, 0xbf, 0xbe, 0x7f, 0x30, 0x01, 0x3e,
  0xa3, 0xfc, 0x1d, 0xbf, 0xb1, 0x39, 0xd4, 0xbd, 0x60, 0xf2, 0x1f, 0xbf,
  0xb4, 0xe9, 0x18, 0xbf, 0x7a, 0x8d, 0xe9, 0x3f, 0x8c, 0x34, 0x2b, 0x3f,
  0xa1, 0x79, 0x4e, 0xbc, 0x76, 0x04, 0x19, 0xbf, 0x54, 0xdc, 0xf4, 0x3f,
  0x3d, 0xea, 0xb4, 0x3f, 0x16, 0xf2, 0x40, 0xbe, 0x96, 0xc8, 0x9d, 0x3e,
  0xb5, 0xe0, 0x78, 0x3f, 0x3f, 0x9e, 0xaf, 0xbc, 0x54, 0xa8, 0x1d, 0x40,
  0x28, 0x28, 0x00, 0x3f, 0x3e, 0x1b, 0x99, 0x3f, 0xd1, 0x70, 0x48, 0x3f,
  0x7f, 0x2d, 0x7e, 0xbf, 0xba, 0x4b, 0x24, 0xbe, 0x00, 0x4b, 0x95, 0xbe,
  0x59, 0xd0, 0x5f, 0x3f, 0x05, 0x42, 0x8d, 0x3f, 0xc6, 0x99, 0x49, 0x3f,
  0x88, 0xf6, 0x03, 0x40, 0x70, 0x45, 0x0d, 0x3f, 0xca, 0xe6, 0xff, 0xff,
  0x04, 0x00, 0x00, 0x00, 0x20, 0x00, 0x00, 0x00, 0x41, 0x00, 0x8b, 0x3e,
  0x9a, 0x76, 0x89, 0x3e, 0x34, 0x00, 0xa7, 0x3e, 0xf0, 0x08, 0x0b, 0x3f,
  0x3a, 0x98, 0xdd, 0x3e, 0x28, 0xd0, 0xd8, 0xbd, 0x10, 0x96, 0xed, 0x3e,
  0xe6, 0xbf, 0x77, 0xbd, 0xf6, 0xe6, 0xff, 0xff, 0x04, 0x00, 0x00, 0x00,
  0x40, 0x00, 0x00, 0x00, 0x9c, 0xc8, 0x04, 0xbe, 0x96, 0x82, 0x8f, 0x3b,
  0x97, 0xf0, 0x8a, 0xbb, 0x42, 0x32, 0x28, 0x3d, 0x09, 0xf2, 0x39, 0x3f,
  0x72, 0x61, 0xd7, 0x3e, 0x00, 0x00, 0x00, 0x00, 0xeb, 0x1e, 0xcc, 0x3e,
  0x34, 0xc2, 0x95, 0x3d, 0xee, 0x79, 0x07, 0x3e, 0x00, 0x00, 0x00, 0x00,
  0xcf, 0xc7, 0x8a, 0xbd, 0x56, 0xd9, 0x0f, 0x3f, 0x85, 0x77, 0xbd, 0x3e,
  0xeb, 0x3a, 0x26, 0xbe, 0x6c, 0x97, 0xf6, 0xbd, 0x42, 0xe7, 0xff, 0xff,
  0x04, 0x00, 0x00, 0x00, 0x80, 0x00, 0x00, 0x00, 0xca, 0x7f, 0xd8, 0x3d,
  0x85, 0xf5, 0x83, 0x3d, 0x01, 0x53, 0x9a, 0x3e, 0x75, 0x90, 0xe2, 0xbd,
  0xff, 0x75, 0x76, 0xbc, 0xd8, 0x50, 0x50, 0xbe, 0x50, 0xd4, 0xbd, 0xbd,
  0x61, 0xc5, 0xb8, 0xbc, 0xee, 0x33, 0xb2, 0x3e, 0x21, 0x21, 0x65, 0x3e,
  0x30, 0xcd, 0x26, 0xbd, 0xde, 0x3c, 0x03, 0xbe, 0x25, 0x3d, 0x60, 0xbe,
  0x5f, 0xcd, 0x5a, 0x3e, 0x8d, 0x8f, 0x0e, 0xbe, 0x2a, 0x25, 0x2b, 0xbd,
  0xba, 0xe4, 0x8d, 0x3e, 0xa5, 0x3c, 0xb1, 0x3e, 0x60, 0x95, 0x8e, 0xbd,
  0x5d, 0xba, 0x28, 0x3d, 0x31, 0x97, 0x19, 0x3e, 0xdf, 0xb4, 0x02, 0x3c,
  0xc9, 0xec, 0x8d, 0xbe, 0x36, 0x03, 0x34, 0xbe, 0x83, 0xf8, 0x76, 0x3e,
  0x2b, 0xea, 0x02, 0x3d, 0x14, 0x40, 0x5e, 0xbd, 0xf9, 0x57, 0x02, 0x3f,
  0x04, 0x5a, 0x61, 0xbc, 0x4f, 0xf0, 0x3b, 0x3e, 0x7a, 0x75, 0x7f, 0x3e,
  0xf7, 0x17, 0xb7, 0x3e, 0xce, 0xe7, 0xff, 0xff, 0x04, 0x00, 0x00, 0x00,
  0x68, 0x00, 0x00, 0x00, 0xb1, 0x4a, 0x06, 0x3d, 0x0c, 0xb4, 0x93, 0xbc,
  0xc3, 0xa8, 0x29, 0xbd, 0x74, 0x4a, 0x11, 0x3d, 0x51, 0xdb, 0x67, 0x3e,
  0xf0, 0x28, 0x64, 0xbd, 0xf6, 0xec, 0xbb, 0xbd, 0xb5, 0x19, 0x31, 0x3e,
  0x03, 0x92, 0x26, 0x3e, 0xc9, 0x0c, 0x1a, 0xbe, 0x26, 0x74, 0x5f, 0xbd,
  0x91, 0xf5, 0x65, 0x3d, 0xad, 0xfe, 0x2a, 0xbe, 0xaf, 0xf8, 0xe6, 0xbc,
  0x12, 0x70, 0x2f, 0x3d, 0xb1, 0x7f, 0x1e, 0x3e, 0x16, 0x80, 0x3e, 0xbe,
  0xd7, 0x9c, 0xc3, 0x3c, 0xc6, 0x87, 0x1d, 0x3e, 0xdd, 0xc1, 0xd8, 0x3b,
  0x96, 0xfc, 0xa9, 0xbb, 0xe0, 0x73, 0x7e, 0x3d, 0x9d, 0x65, 0x7a, 0xbd,
  0x9d, 0x84, 0x9b, 0xbd, 0x24, 0xfa, 0xc3, 0xbd, 0x4c, 0x69, 0x56, 0xbe,
  0x42, 0xe8, 0xff, 0xff, 0x04, 0x00, 0x00, 0x00, 0x00, 0x02, 0x00, 0x00,
  0xc5, 0x69, 0x90, 0xbe, 0x73, 0x13, 0x5c, 0x3d, 0x10, 0x0e, 0x21, 0x3f,
  0xff, 0xa9, 0xa5, 0x3f, 0xaf, 0x3c, 0x5c, 0xbd, 0xed, 0x7d, 0x72, 0x3f,
  0x2e, 0x3f, 0x23, 0x3f, 0xb6, 0xd4, 0x01, 0x3f, 0x6b, 0x6d, 0x8a, 0x3f,
  0x91, 0x8c, 0x82, 0x3f, 0x65, 0x4e, 0x30, 0x3f, 0xea, 0xc7, 0x88, 0xbf,
  0x0e, 0xc3, 0x9f, 0xbe, 0x5b, 0x9b, 0xec, 0xbe, 0xd7, 0xdd, 0x4d, 0x3f,
  0x75, 0xd0, 0x17, 0x3f, 0x74, 0x38, 0x1d, 0xbd, 0x00, 0x1b, 0x90, 0x3e,
  0x83, 0x66, 0x8e, 0xbe, 0x30, 0x0b, 0xa3, 0xbe, 0x67, 0x83, 0x3d, 0xbe,
  0xc6, 0x7f, 0x88, 0xbe, 0xd0, 0xdb, 0xa4, 0xbe, 0x70, 0x19, 0x5f, 0xbd,
  0x2e, 0xbb, 0xae, 0x3f, 0xa1, 0x84, 0x7d, 0x3f, 0x2a, 0xfd, 0x60, 0xbf,
  0xaf, 0xcd, 0x14, 0xbf, 0xd6, 0x0d, 0x28, 0xbf, 0x9b, 0x22, 0x1b, 0x3f,
  0x28, 0xf5, 0x2c, 0x3f, 0xd0, 0x18, 0xd4, 0x3e, 0xe7, 0x0f, 0xfb, 0xbe,
  0x86, 0x33, 0xcd, 0x3e, 0xbe, 0xb1, 0xf1, 0xbe, 0xa8, 0x04, 0xf7, 0x3e,
  0x06, 0xe9, 0x73, 0x3f, 0xd8, 0x5d, 0x7b, 0xbf, 0x80, 0x72, 0x8c, 0x3e,
  0x96, 0x3d, 0x3e, 0xbe, 0x3d, 0xe4, 0xa4, 0x3f, 0x9e, 0x4d, 0x92, 0x3f,
  0x40, 0x08, 0xd1, 0xbe, 0xb1, 0x06, 0x3b, 0xbf, 0xca, 0xbc, 0x5f, 0xbf,
  0x0a, 0x94, 0x89, 0xbe, 0x29, 0x87, 0x56, 0x3f, 0x64, 0x56, 0x6e, 0x3c,
  0xb8, 0xf9, 0x32, 0xbe, 0x80, 0xd6, 0x9d, 0xbc, 0x78, 0x0c, 0x56, 0x3e,
  0x20, 0x07, 0xa9, 0xbe, 0xf8, 0xa7, 0x6e, 0xbe, 0x60, 0xef, 0xc3, 0xbd,
  0xe8, 0x6f, 0x02, 0xbe, 0x70, 0x65, 0xd2, 0xbe, 0xda, 0xa0, 0x90, 0x3f,
  0x9a, 0xc3, 0x4a, 0x3f, 0xf1, 0xc6, 0x5e, 0x3f, 0xca, 0x10, 0x20, 0xbf,
  0x25, 0xeb, 0x99, 0xbd, 0x10, 0x55, 0x9a, 0xbe, 0xfe, 0xca, 0x40, 0x3f,
  0x1d, 0xbf, 0xae, 0x3d, 0x0b, 0x54, 0x26, 0x3f, 0x16, 0x66, 0x28, 0xbe,
  0xcb, 0x5d, 0x58, 0x3f, 0xec, 0x7b, 0x92, 0x3a, 0xbe, 0x0b, 0x58, 0xbf,
  0x2e, 0x6c, 0xe1, 0x3e, 0x6d, 0x74, 0xa3, 0x3f, 0x6b, 0xbd, 0x5e, 0x3e,
  0x71, 0xeb, 0x6f, 0x3e, 0x40, 0x1d, 0x19, 0xbe, 0x11, 0x54, 0x3f, 0x3f,
  0x72, 0xa8, 0xa2, 0xbe, 0x35, 0x23, 0xad, 0xbf, 0xc1, 0x61, 0xba, 0xbe,
  0x9d, 0x1d, 0x70, 0x3f, 0xab, 0x43, 0xd9, 0xbd, 0xc0, 0x23, 0x40, 0xbd,
  0xa0, 0xbc, 0x41, 0xbd, 0x3c, 0xdf, 0x94, 0xbe, 0x38, 0xb8, 0x43, 0x3e,
  0x9c, 0x20, 0xc1, 0xbe, 0x00, 0xdf, 0x18, 0xbc, 0xf4, 0x47, 0xe4, 0xbe,
  0x94, 0xff, 0xe0, 0xbe, 0xb0, 0xae, 0xcb, 0xbe, 0xe4, 0x6e, 0x95, 0x3e,
  0x1d, 0xd6, 0x8d, 0xbf, 0x80, 0x83, 0x96, 0x3f, 0x5b, 0x8e, 0xc1, 0x3d,
  0xf3, 0x5d, 0x92, 0x3f, 0xb4, 0x76, 0xbe, 0x3e, 0x6d, 0xd8, 0x1a, 0x3f,
  0xf2, 0x3b, 0xe4, 0xbe, 0x7f, 0x06, 0x0d, 0xbe, 0xc1, 0x5c, 0x76, 0x3f,
  0xa7, 0x99, 0xd7, 0x3f, 0x9f, 0x01, 0xcb, 0x3c, 0x66, 0x7a, 0x89, 0xbe,
  0xfb, 0x5e, 0x81, 0x3f, 0x9c, 0xc3, 0x6b, 0xbe, 0x33, 0x7e, 0x94, 0xbe,
  0x20, 0xf4, 0x41, 0x3f, 0x02, 0x98, 0x0f, 0x3e, 0x80, 0x38, 0xab, 0xbf,
  0x17, 0xc8, 0x6c, 0x3f, 0xba, 0x7e, 0x07, 0x3d, 0x3a, 0x4e, 0x2c, 0xbf,
  0x96, 0xb8, 0x82, 0x3f, 0x6b, 0x2e, 0xd5, 0x3e, 0x8c, 0x5b, 0x85, 0x3e,
  0x57, 0x63, 0xdb, 0x3e, 0x66, 0x46, 0xac, 0x3e, 0x61, 0xc4, 0xbf, 0xbe,
  0x20, 0x0d, 0xad, 0x3f, 0xf0, 0xdf, 0x20, 0x3f, 0x4c, 0x5e, 0x1c, 0x3f,
  0x76, 0x44, 0xb0, 0xbf, 0x79, 0xd2, 0x9d, 0x3e, 0x1f, 0x2b, 0x50, 0x3f,
  0xa8, 0xc9, 0x0d, 0x3f, 0x03, 0x8f, 0x5e, 0x3f, 0xa3, 0x7a, 0xb9, 0x3f,
  0x90, 0x05, 0xa7, 0x3e, 0x2c, 0xb2, 0x94, 0x3f, 0x4e, 0xea, 0xff, 0xff,
  0x04, 0x00, 0x00, 0x00, 0x00, 0x08, 0x00, 0x00, 0x76, 0xe3, 0xdb, 0x3d,
  0x56, 0x36, 0xd9, 0x3e, 0xb0, 0x09, 0x40, 0x3e, 0x77, 0xd6, 0x21, 0x3f,
  0x90, 0x8f, 0x04, 0xbf, 0xe7, 0x0a, 0xc9, 0x3e, 0x2f, 0x49, 0x94, 0x3e,
  0xe9, 0xc8, 0x00, 0x3f, 0xb1, 0x2d, 0xcb, 0xbe, 0x00, 0x36, 0xcd, 0xbe,
  0xdc, 0xf0, 0xda, 0x3d, 0x17, 0x3f, 0x46, 0xbe, 0x06, 0xdf, 0xb5, 0xbe,
  0xd2, 0x53, 0x6a, 0x3f, 0xf0, 0xe0, 0x60, 0x3e, 0x00, 0xea, 0x58, 0x3e,
  0x2e, 0x18, 0x69, 0xbe, 0xcd, 0x70, 0xf0, 0x3e, 0xba, 0x65, 0xe9, 0x3b,
  0x65, 0x17, 0x62, 0x3f, 0x58, 0x20, 0x19, 0xbd, 0xa9, 0xd9, 0x59, 0x3f,
  0x36, 0xd4, 0x37, 0xbe, 0x6c, 0x6e, 0x9f, 0x3e, 0x91, 0x5d, 0x95, 0x3e,
  0x96, 0xdc, 0x67, 0xbf, 0x90, 0xb2, 0xa6, 0xbd, 0x8d, 0x2b, 0xb6, 0x3e,
  0x90, 0xb9, 0xa7, 0xbe, 0xb3, 0xe0, 0xe1, 0x3e, 0x63, 0x9c, 0x05, 0x3f,
  0xa2, 0x11, 0xbd, 0xbe, 0x74, 0xfb, 0x34, 0x3f, 0x38, 0xcb, 0x39, 0xbf,
  0xa3, 0xd1, 0x8e, 0x3e, 0xb9, 0x68, 0x07, 0xbe, 0x7e, 0x6e, 0x8a, 0x3c,
  0x65, 0x87, 0x7a, 0xbe, 0xb0, 0xa0, 0x9c, 0xbe, 0xf3, 0xd6, 0x9e, 0xbe,
  0x6e, 0xbb, 0xba, 0x3e, 0x88, 0xcf, 0x87, 0xbf, 0xd0, 0x9a, 0xfc, 0xbd,
  0xba, 0x41, 0x8b, 0x3f, 0x0b, 0xaf, 0x31, 0x3f, 0xda, 0x14, 0x44, 0xbf,
  0x51, 0xcf, 0xcd, 0x3e, 0x24, 0x82, 0x21, 0x3f, 0x45, 0x2c, 0x51, 0x3e,
  0x62, 0x7f, 0x0e, 0xbd, 0xc8, 0x21, 0x3c, 0x3d, 0x45, 0x6c, 0x6d, 0x3f,
  0x51, 0x38, 0x45, 0xbf, 0x52, 0xd7, 0x3b, 0x3f, 0xc8, 0x77, 0x28, 0xbd,
  0x96, 0x85, 0x2c, 0xbd, 0x55, 0x40, 0x81, 0x3e, 0xfc, 0x76, 0x06, 0x3f,
  0x6a, 0x36, 0x73, 0x3e, 0x41, 0x03, 0xba, 0x3e, 0x30, 0x7d, 0xb2, 0xbe,
  0x72, 0xb9, 0x95, 0xbe, 0x8e, 0x67, 0x1f, 0x3f, 0xb2, 0xff, 0x95, 0x3e,
  0xf0, 0x7e, 0x91, 0x3c, 0x72, 0xf0, 0xb8, 0xbd, 0xbb, 0x9c, 0xa0, 0x3e,
  0xe0, 0xe1, 0x8c, 0x3e, 0x88, 0xfb, 0xc1, 0x3d, 0xc4, 0x7e, 0x7c, 0x3e,
  0xf5, 0x8d, 0x96, 0x3e, 0x73, 0x12, 0x3f, 0xbe, 0x99, 0xfa, 0x76, 0xbe,
  0x60, 0x5f, 0x34, 0xbe, 0x52, 0xb6, 0xb3, 0xbe, 0x4c, 0x8b, 0xe8, 0xbd,
  0x17, 0xfc, 0x55, 0xbe, 0x4f, 0x99, 0x63, 0xbe, 0x66, 0x96, 0x23, 0xbd,
  0xfc, 0x73, 0xa8, 0xbe, 0xf2, 0x00, 0xc6, 0xbd, 0x9e, 0x8e, 0xaa, 0x3e,
  0x36, 0x74, 0x99, 0xbe, 0xce, 0xdb, 0x0d, 0x3f, 0xf3, 0x8d, 0xf6, 0xbe,
  0xb8, 0xbc, 0xc2, 0x3e, 0xb8, 0x93, 0x6b, 0xbd, 0x79, 0x78, 0x88, 0x3a,
  0xef, 0x82, 0x1c, 0x3f, 0x4b, 0xc9, 0x02, 0xbf, 0x40, 0x95, 0x13, 0xbd,
  0x8d, 0xb6, 0xe0, 0x3e, 0xde, 0x46, 0x34, 0xbe, 0x7b, 0x70, 0x22, 0xbf,
  0x3a, 0x2b, 0x2c, 0x3e, 0xba, 0x26, 0xd1, 0x3e, 0x81, 0x2d, 0x32, 0x3e,
  0x93, 0xb4, 0xbc, 0x3e, 0xe2, 0x23, 0x54, 0x3d, 0x98, 0xc2, 0x1c, 0xbe,
  0x86, 0xbc, 0x9a, 0xbc, 0x9f, 0x2b, 0xb4, 0x3e, 0x48, 0x29, 0xd2, 0x3d,
  0x4d, 0xcb, 0x11, 0x3f, 0xd5, 0xff, 0x49, 0xbd, 0x79, 0x9a, 0x9d, 0x3f,
  0x5a, 0xe7, 0x3e, 0x3e, 0x0a, 0xbf, 0x1e, 0xbf, 0x09, 0x77, 0xe6, 0x3e,
  0x76, 0x68, 0x3e, 0x3d, 0x33, 0x2b, 0xbc, 0x3e, 0x51, 0xdd, 0x81, 0x3d,
  0xe6, 0xc2, 0x83, 0x3e, 0xae, 0xe5, 0x30, 0xbe, 0x56, 0x38, 0x3f, 0x3e,
  0xab, 0xce, 0x86, 0xbe, 0x43, 0x19, 0xde, 0x3e, 0x96, 0x06, 0x89, 0xbe,
  0x80, 0x54, 0xee, 0xbc, 0x1d, 0x0b, 0x09, 0xbf, 0x58, 0xd3, 0x3b, 0x3f,
  0x80, 0x24, 0x7b, 0x3e, 0xc0, 0xbb, 0x0a, 0xbd, 0x85, 0xc5, 0x44, 0x3d,
  0xc7, 0xc3, 0x3b, 0x3f, 0x1e, 0xe2, 0x72, 0xbe, 0x14, 0x5e, 0x1f, 0xbd,
  0xbc, 0x7c, 0x24, 0x3f, 0x0e, 0xd4, 0xdb, 0x3d, 0x86, 0xa8, 0xb9, 0x3d,
  0x21, 0x0c, 0x3e, 0xbe, 0x43, 0x7f, 0x43, 0xbe, 0x81, 0x43, 0x2e, 0x3f,
  0xcb, 0xd8, 0x09, 0xbf, 0xc8, 0x21, 0x07, 0xbd, 0x33, 0x3e, 0x94, 0x3e,
  0x6e, 0xc2, 0x63, 0xbf, 0x3c, 0x94, 0x83, 0xbf, 0xf0, 0x67, 0xb6, 0x3c,
  0x3d, 0xad, 0x34, 0x3f, 0xb0, 0xcb, 0x09, 0xbf, 0x67, 0xe6, 0x9c, 0x3f,
  0x9b, 0x3e, 0x90, 0x3e, 0xb1, 0x69, 0x8e, 0x3f, 0xac, 0xe3, 0x9b, 0xbe,
  0x95, 0xd5, 0xac, 0x3e, 0xfc, 0xe7, 0x93, 0x3e, 0x6c, 0x5c, 0xb9, 0x3e,
  0xa0, 0x6a, 0x93, 0x3f, 0xa3, 0x66, 0x8a, 0x3e, 0x60, 0x10, 0x4a, 0xbe,
  0x68, 0x91, 0x06, 0x3f, 0x3d, 0xae, 0x13, 0xbd, 0x07, 0xdf, 0xf4, 0xbe,
  0xf2, 0x11, 0x86, 0xbe, 0xce, 0x64, 0xd3, 0xbe, 0x66, 0x29, 0x69, 0x3e,
  0x8a, 0xbc, 0x14, 0x3f, 0xf6, 0xf0, 0x3f, 0xbd, 0xe3, 0x7c, 0x5a, 0xbd,
  0x3c, 0x0d, 0x85, 0xbd, 0xf1, 0x93, 0x67, 0x3e, 0xb9, 0x11, 0xee, 0xbd,
  0xb7, 0xe2, 0xfb, 0x3e, 0x2f, 0x77, 0x1a, 0x3f, 0x7a, 0x96, 0xa4, 0x3e,
  0xed, 0x0d, 0x8c, 0xbe, 0x75, 0x51, 0x81, 0xbe, 0xa4, 0x92, 0x20, 0x3e,
  0xa7, 0xfa, 0x9a, 0xbe, 0x4a, 0x6d, 0x57, 0xbe, 0x29, 0x4b, 0x77, 0x3f,
  0x87, 0xcd, 0x92, 0xbe, 0x67, 0xaf, 0x32, 0x3f, 0x3a, 0xd1, 0xaf, 0x3d,
  0xd3, 0xce, 0x36, 0x3b, 0xb3, 0x94, 0xfe, 0x3e, 0x0a, 0xdb, 0xbd, 0xbe,
  0x83, 0xec, 0x37, 0x3c, 0x95, 0x86, 0xf0, 0x3e, 0x7d, 0x43, 0x49, 0xbd,
  0x2e, 0x32, 0xfd, 0x3e, 0xed, 0x51, 0x9f, 0x3e, 0x12, 0x6f, 0x05, 0xbf,
  0xa5, 0x4f, 0x63, 0xbe, 0x1e, 0x36, 0xf3, 0xbe, 0x19, 0xe1, 0x92, 0x3e,
  0xd5, 0xe4, 0x67, 0x3f, 0xf2, 0xef, 0xd1, 0xbd, 0x25, 0x5e, 0x86, 0x3d,
  0x40, 0xe4, 0x17, 0x3f, 0x27, 0xb9, 0xd0, 0x3e, 0x07, 0x2b, 0x34, 0x3c,
  0x4b, 0xd6, 0x96, 0x3e, 0xca, 0x72, 0x20, 0x3e, 0x48, 0x48, 0x22, 0xbd,
  0x5b, 0x50, 0xc8, 0xbd, 0x5a, 0x4c, 0xe1, 0x3e, 0x08, 0x81, 0x19, 0x3d,
  0xce, 0xe4, 0xe8, 0x3d, 0xce, 0x62, 0x14, 0xbe, 0x22, 0x6f, 0x82, 0x3e,
  0xa1, 0x7c, 0x91, 0x3e, 0x3b, 0x92, 0x07, 0x3f, 0x79, 0xeb, 0x57, 0xbf,
  0x2f, 0xc3, 0x3c, 0x3e, 0xf8, 0x37, 0xd0, 0x3e, 0x39, 0x61, 0xe7, 0x3e,
  0x36, 0x46, 0xa4, 0x3c, 0x42, 0x7f, 0x0a, 0x3f, 0x28, 0x52, 0x06, 0xbd,
  0xa7, 0x8a, 0x80, 0xbd, 0x9c, 0x44, 0xcd, 0x3e, 0x59, 0x87, 0x7f, 0x3f,
  0x99, 0xd0, 0x4e, 0xbe, 0x1a, 0x38, 0x07, 0x3f, 0x92, 0xd5, 0x5a, 0x3f,
  0xb5, 0x3b, 0x3a, 0x3f, 0x29, 0x12, 0x9f, 0x3e, 0x75, 0x55, 0x7e, 0xbd,
  0x69, 0x54, 0x31, 0x3f, 0xf2, 0x85, 0x6b, 0xbf, 0xed, 0x59, 0x68, 0x3e,
  0xa4, 0x6b, 0xec, 0xbe, 0xf9, 0x7c, 0xf9, 0x3d, 0x71, 0x5e, 0x81, 0xbe,
  0x16, 0xb0, 0x32, 0xbd, 0xea, 0x68, 0x2b, 0x3d, 0x40, 0x32, 0x68, 0x3e,
  0x3d, 0x35, 0x06, 0xbf, 0x50, 0x33, 0x23, 0x3d, 0x0a, 0xae, 0x10, 0xbe,
  0xe8, 0x28, 0xb2, 0x3e, 0x6b, 0x46, 0x33, 0x3f, 0x80, 0x39, 0xfe, 0x3b,
  0x2d, 0x68, 0x53, 0xbe, 0x7d, 0xd4, 0x9e, 0xbe, 0x48, 0x04, 0x95, 0x3f,
  0x4c, 0xe7, 0x71, 0xbc, 0xfc, 0xfe, 0x6a, 0x3f, 0x3b, 0xdf, 0x19, 0x3f,
  0xe2, 0xda, 0x2d, 0x3e, 0xfe, 0xb7, 0xa1, 0x3e, 0xf1, 0xae, 0x88, 0xbe,
  0x69, 0x46, 0x42, 0xbf, 0x60, 0x26, 0xfb, 0xbe, 0x30, 0xbc, 0x7f, 0xbe,
  0xc3, 0x91, 0xff, 0x3d, 0x8d, 0x6a, 0x27, 0x3d, 0xb3, 0x66, 0xb8, 0x3e,
  0xd0, 0x42, 0x09, 0x3e, 0x8b, 0xa6, 0x67, 0x3c, 0xb8, 0x2c, 0x78, 0x3e,
  0x09, 0x8d, 0x60, 0xbd, 0xcc, 0xd2, 0x04, 0x3e, 0x77, 0x5c, 0x09, 0x3f,
  0x02, 0xb9, 0x26, 0x3f, 0xdb, 0x0d, 0xe9, 0xbe, 0x7c, 0x94, 0x9b, 0xbe,
  0x44, 0xbd, 0x30, 0xbf, 0x31, 0x16, 0x0e, 0x3e, 0x6f, 0x59, 0x5b, 0xbf,
  0x90, 0x36, 0x97, 0x3c, 0x50, 0x93, 0x80, 0xbe, 0xd9, 0xdf, 0xe0, 0xbb,
  0xfa, 0x67, 0x48, 0xbe, 0x86, 0x22, 0x32, 0x3e, 0xe0, 0xb6, 0x1b, 0x3f,
  0x68, 0x39, 0x91, 0x3f, 0x71, 0x18, 0x34, 0xbf, 0xbc, 0x15, 0x23, 0x3f,
  0xae, 0xa8, 0x52, 0x3f, 0xd2, 0x7e, 0x81, 0xbd, 0x34, 0x11, 0x6a, 0xbd,
  0x8f, 0x09, 0x93, 0x3e, 0x66, 0xd0, 0x84, 0xbf, 0xb4, 0x44, 0x6b, 0x3f,
  0x57, 0xb6, 0x22, 0xbf, 0xb8, 0xef, 0x18, 0x3d, 0xce, 0xf4, 0x93, 0xbc,
  0x66, 0x12, 0xfa, 0x3d, 0xff, 0xb4, 0x18, 0xbf, 0x68, 0xfc, 0x19, 0x3d,
  0x6a, 0xa1, 0xc2, 0xbe, 0xce, 0xa1, 0x4d, 0x3f, 0xa8, 0x6b, 0x0c, 0xbe,
  0xb3, 0x2a, 0x37, 0xbe, 0xfe, 0x37, 0xae, 0x3e, 0x74, 0x8a, 0x14, 0xbe,
  0x7f, 0xd1, 0xe2, 0xbd, 0x60, 0x55, 0x17, 0xbc, 0xb0, 0xcb, 0x70, 0xbe,
  0xd7, 0x83, 0xb3, 0x3c, 0x23, 0xe0, 0x9f, 0x3e, 0xce, 0xf5, 0x52, 0x3e,
  0x33, 0xf9, 0x76, 0xbe, 0x4d, 0x27, 0x89, 0x3e, 0x2f, 0xfb, 0x89, 0x3e,
  0xee, 0xab, 0x27, 0x3e, 0xb8, 0xa7, 0xa5, 0xbe, 0x40, 0x70, 0x3a, 0x3c,
  0x4a, 0xf0, 0x30, 0x3e, 0xdb, 0x68, 0x34, 0xbe, 0x1a, 0x74, 0x50, 0xbd,
  0xf0, 0x39, 0x1f, 0x3c, 0x86, 0xbf, 0xdb, 0x3e, 0xef, 0xa7, 0x8a, 0xbe,
  0x32, 0x3d, 0x29, 0x3f, 0xdf, 0x7a, 0x8e, 0x3e, 0xd8, 0x7c, 0x41, 0x3f,
  0x3e, 0x21, 0x54, 0x3e, 0x83, 0xfb, 0x51, 0x3f, 0xa7, 0x6c, 0x4a, 0x3f,
  0x1d, 0x5a, 0xf7, 0x3e, 0xa6, 0x12, 0x71, 0x3e, 0xad, 0x0c, 0x82, 0x3e,
  0x88, 0x5b, 0x91, 0x3e, 0x2f, 0xd8, 0xa8, 0xbe, 0xae, 0xcf, 0x62, 0x3e,
  0x01, 0x3e, 0x97, 0xbe, 0x1a, 0x73, 0x91, 0x3e, 0xe1, 0xba, 0xc4, 0x3e,
  0xdf, 0xb6, 0x4f, 0x3e, 0x41, 0xf9, 0xa0, 0xbe, 0xc5, 0x5c, 0xca, 0x3e,
  0x33, 0xbc, 0x37, 0xbe, 0xe0, 0xd4, 0x68, 0x3c, 0xbf, 0x4a, 0x06, 0xbe,
  0xd0, 0x78, 0x47, 0xbf, 0xf0, 0x54, 0x9f, 0xbf, 0x8e, 0x98, 0x03, 0xbe,
  0x26, 0x19, 0x26, 0x3f, 0x41, 0xb7, 0x98, 0xbe, 0x10, 0x9a, 0x96, 0x3f,
  0xb1, 0x05, 0x32, 0x3e, 0xad, 0x15, 0x6a, 0x3f, 0xdb, 0x11, 0x2e, 0x3f,
  0x5c, 0x74, 0xca, 0x3e, 0xc0, 0xac, 0xf8, 0x3d, 0x01, 0x8d, 0x0b, 0x3f,
  0xc9, 0x82, 0x80, 0xbf, 0xa2, 0xf1, 0x14, 0x3f, 0x05, 0x31, 0x96, 0xbe,
  0x20, 0x54, 0x1d, 0x3f, 0x78, 0x32, 0x5b, 0x3f, 0x6c, 0xbc, 0x72, 0x3f,
  0x36, 0xf7, 0x61, 0xbe, 0x49, 0x97, 0x8c, 0xbe, 0xbe, 0x1d, 0x19, 0x3f,
  0x40, 0xae, 0x81, 0xbf, 0x20, 0x0b, 0xe5, 0x3e, 0xfd, 0x59, 0x3f, 0xbe,
  0x54, 0xee, 0x18, 0x3e, 0xbd, 0x80, 0x2c, 0x3e, 0xf2, 0xaa, 0x93, 0x3e,
  0xda, 0x6f, 0x3f, 0xbe, 0x0f, 0x18, 0x5f, 0xbf, 0x3b, 0x0d, 0x4f, 0xbe,
  0x01, 0xf6, 0x8c, 0x3e, 0xea, 0xc6, 0x74, 0x3d, 0x3b, 0x74, 0x21, 0x3e,
  0xd4, 0x67, 0x88, 0x3f, 0x5e, 0xd1, 0x7d, 0x3e, 0x47, 0x04, 0x12, 0x3c,
  0x36, 0xe2, 0x99, 0x3e, 0x4c, 0x03, 0x88, 0x3e, 0xad, 0x72, 0x03, 0x3f,
  0x6a, 0x42, 0xd3, 0x3e, 0x4f, 0xfa, 0xa6, 0x3e, 0x71, 0xde, 0xfb, 0x3d,
  0xa0, 0x27, 0x1a, 0x3d, 0xba, 0x75, 0x29, 0xbd, 0xd2, 0x9e, 0x6d, 0xbf,
  0xf3, 0x4c, 0x7d, 0xbe, 0xfe, 0x1c, 0x4b, 0x3e, 0x6d, 0xd9, 0x19, 0x3f,
  0xb9, 0x3c, 0x1e, 0x3f, 0xc5, 0x0a, 0x41, 0x3f, 0x9a, 0x27, 0x1b, 0xbe,
  0x94, 0xa5, 0x15, 0xbf, 0xd2, 0x8f, 0x7f, 0xbe, 0x60, 0xc2, 0x07, 0x3e,
  0x80, 0x33, 0xdc, 0x3e, 0x02, 0xbf, 0x1c, 0x3f, 0x27, 0xa2, 0x0a, 0xbf,
  0x73, 0xb9, 0xdc, 0xbe, 0xa7, 0x00, 0x0f, 0xbd, 0x0a, 0xc0, 0xf3, 0xbb,
  0x7f, 0x67, 0x70, 0x3f, 0x74, 0xa5, 0x0b, 0xbf, 0xda, 0x22, 0x82, 0xbe,
  0x6e, 0xfa, 0x38, 0x3e, 0x2d, 0xe1, 0xa0, 0xbf, 0x1f, 0x39, 0x53, 0xbe,
  0xfa, 0x1e, 0x6c, 0x3e, 0x27, 0xae, 0x79, 0x3e, 0x86, 0x2b, 0x6f, 0xbd,
  0x13, 0x8a, 0xb2, 0x3e, 0x43, 0x4e, 0x46, 0xbf, 0x04, 0x59, 0x3d, 0x3e,
  0xc1, 0x08, 0xb7, 0xbe, 0x6b, 0x58, 0x56, 0xbe, 0xc9, 0x48, 0x9f, 0x3e,
  0xc4, 0x9f, 0x89, 0xbd, 0x21, 0xad, 0x89, 0x3e, 0x8c, 0x70, 0x81, 0xbe,
  0x52, 0x52, 0x7e, 0x3e, 0x3e, 0x1d, 0x83, 0xbe, 0x2f, 0x80, 0x89, 0xbe,
  0xae, 0x62, 0x5c, 0xbe, 0xce, 0x9b, 0x46, 0x3e, 0xd8, 0xbf, 0x83, 0xbd,
  0x34, 0x04, 0x69, 0xbe, 0xd8, 0xfe, 0xd4, 0xbd, 0x9e, 0x13, 0x6e, 0x3e,
  0x67, 0xe9, 0x82, 0xbe, 0x05, 0xd2, 0x0c, 0xbe, 0x06, 0xe2, 0xdf, 0x3c,
  0xbd, 0xfb, 0x8a, 0x3e, 0xd6, 0x6f, 0xd4, 0x3e, 0xe6, 0x77, 0x44, 0xbf,
  0xb3, 0xa5, 0x0c, 0x3f, 0x21, 0xd3, 0xa0, 0x3e, 0xb4, 0xf1, 0x54, 0x3e,
  0x76, 0x94, 0x2c, 0x3e, 0x55, 0x30, 0x1c, 0xbf, 0x32, 0x4f, 0x30, 0x3e,
  0x6e, 0xfd, 0x77, 0x3f, 0xac, 0x54, 0x13, 0xbf, 0xd9, 0x70, 0xc5, 0x3e,
  0x51, 0xf4, 0x2a, 0x3f, 0x7c, 0xb8, 0xbc, 0x3e, 0x8a, 0x71, 0xf9, 0x3c,
  0xaa, 0xb6, 0x78, 0xbd, 0xd2, 0xd5, 0xfa, 0xbd, 0x6a, 0xa0, 0xeb, 0xbe,
  0xfe, 0x65, 0x97, 0x3f, 0xbd, 0x47, 0x63, 0x3e, 0x54, 0xe0, 0xf4, 0x3d,
  0xa1, 0xa8, 0xcd, 0x3e, 0xab, 0xee, 0x92, 0x3d, 0xc9, 0xa3, 0x8c, 0xbe,
  0x4b, 0x22, 0x2d, 0xbe, 0x96, 0x48, 0xda, 0xbe, 0x75, 0xb3, 0x40, 0x3f,
  0xde, 0x54, 0x87, 0x3d, 0x7c, 0x8d, 0x89, 0xbd, 0x90, 0xa2, 0xa9, 0xbe,
  0x44, 0x0e, 0x83, 0x3e, 0x1c, 0xa6, 0xd7, 0x3e, 0xb9, 0x5a, 0x6c, 0x3e,
  0x3f, 0x77, 0x86, 0x3e, 0xb4, 0xf3, 0xeb, 0xbe, 0xf6, 0x2b, 0x0d, 0xbf,
  0xa8, 0x18, 0x1f, 0x3d, 0x6d, 0x79, 0xee, 0x3e, 0x29, 0x46, 0xca, 0xbe,
  0x55, 0x80, 0x4d, 0xbf, 0x82, 0x2c, 0x7c, 0xbe, 0xd9, 0xc6, 0x77, 0x3e,
  0x01, 0x12, 0x01, 0xbf, 0x4b, 0x50, 0x3f, 0x3f, 0x06, 0xce, 0x82, 0x3e,
  0x08, 0x6a, 0xcd, 0x3e, 0x3d, 0xa2, 0x64, 0xbe, 0xd3, 0x6a, 0xf5, 0x3e,
  0x0d, 0xc0, 0xa1, 0x3e, 0xa2, 0x58, 0x51, 0x3e, 0x37, 0x87, 0x2e, 0x3f,
  0x65, 0x83, 0x87, 0x3f, 0xc0, 0xf0, 0x97, 0xbd, 0xc0, 0x00, 0x52, 0x3f,
  0x10, 0x7e, 0x1e, 0x3f, 0x58, 0xc9, 0x67, 0x3e, 0x24, 0x52, 0x16, 0xbe,
  0xcf, 0xf0, 0xd7, 0xbe, 0x09, 0x29, 0x37, 0x3f, 0xc1, 0x8a, 0xd1, 0x3e,
  0x49, 0xf5, 0xae, 0xbd, 0x68, 0x84, 0x63, 0x3c, 0xbc, 0x35, 0xb1, 0x3e,
  0x51, 0x75, 0xec, 0xbe, 0x1c, 0xc2, 0xcd, 0xbd, 0xd3, 0x46, 0x91, 0xbe,
  0xef, 0x67, 0x03, 0x3f, 0x0d, 0xa3, 0x40, 0xbf, 0xf4, 0xf6, 0x57, 0xbe,
  0xd1, 0x8f, 0xe8, 0x3d, 0xdb, 0x38, 0x44, 0x3e, 0xca, 0xa1, 0x2e, 0x3f,
  0x70, 0xc4, 0x9a, 0xbd, 0x2f, 0x86, 0xc3, 0x3e, 0xbd, 0x5d, 0x29, 0x3f,
  0xfa, 0x54, 0xb2, 0x3e, 0x8c, 0x9f, 0x96, 0x3e, 0x5a, 0x39, 0x1a, 0x3f,
  0x98, 0x95, 0xd6, 0x3d, 0x8f, 0xfe, 0x11, 0xbd, 0xd8, 0x22, 0x10, 0x3e,
  0x53, 0x8c, 0x16, 0x3f, 0x1c, 0x97, 0x35, 0x3f, 0x0a, 0x5e, 0xb1, 0x3e,
  0xb7, 0xca, 0xa5, 0x3e, 0x8d, 0xab, 0xe0, 0x3d, 0x97, 0x1e, 0x7a, 0xbe,
  0x57, 0x8b, 0xcc, 0xbf, 0xb2, 0x32, 0x7b, 0x3e, 0x60, 0x8b, 0xf6, 0xbc,
  0xd0, 0x37, 0x1f, 0xbf, 0x54, 0x62, 0x30, 0x3f, 0x9e, 0x9c, 0x33, 0xbe,
  0x41, 0x24, 0x8f, 0x3e, 0x5a, 0xf2, 0xff, 0xff, 0x04, 0x00, 0x00, 0x00,
  0x00, 0x0d, 0x00, 0x00, 0xd6, 0xfb, 0x57, 0xbe, 0x29, 0xd7, 0x87, 0x3d,
  0xb7, 0x8f, 0x97, 0xbf, 0xe8, 0xc2, 0xad, 0x3e, 0x9d, 0xfe, 0xac, 0xbd,
  0x65, 0x94, 0xb3, 0x3e, 0x8d, 0x3a, 0x20, 0x3e, 0xcd, 0xfa, 0xc2, 0xbf,
  0x5b, 0x1b, 0xfd, 0xbf, 0xb6, 0x00, 0xa1, 0xbc, 0xde, 0xef, 0xe4, 0xbd,
  0x7c, 0x1e, 0x6f, 0x3c, 0x11, 0x7a, 0x06, 0x3d, 0xa6, 0xfa, 0xd7, 0x3e,
  0x17, 0xa7, 0x01, 0xc0, 0xe0, 0x47, 0xc2, 0xbe, 0x7a, 0xe8, 0x4a, 0xbf,
  0xe7, 0x37, 0x38, 0xbf, 0xb3, 0x91, 0x03, 0x3e, 0x95, 0xdc, 0xca, 0x3e,
  0x5c, 0x7e, 0xf9, 0xbf, 0x4e, 0x06, 0xd7, 0x3e, 0xda, 0xb0, 0xaf, 0xbe,
  0x58, 0x1e, 0xb3, 0xbe, 0xfd, 0xed, 0x26, 0xbd, 0x49, 0x0d, 0x55, 0x3e,
  0xc0, 0xf8, 0x8b, 0x3e, 0x07, 0x1e, 0x83, 0xbd, 0x36, 0xb7, 0x14, 0xbf,
  0x37, 0x76, 0xa1, 0x3e, 0x8a, 0xf8, 0xd4, 0xbf, 0xba, 0x60, 0x0f, 0xbf,
  0xa5, 0xd0, 0x22, 0xbf, 0x68, 0x3d, 0xee, 0xbe, 0x3e, 0x9f, 0xb2, 0x3e,
  0xd2, 0xcf, 0x14, 0xbe, 0xcf, 0x81, 0xcb, 0xbd, 0xd3, 0x50, 0x67, 0xbd,
  0x82, 0xab, 0x41, 0xbe, 0xef, 0xae, 0x43, 0xbe, 0xf6, 0x1f, 0x4b, 0xbd,
  0x23, 0xfd, 0x50, 0xbf, 0xd1, 0x83, 0xae, 0xbe, 0x92, 0x3d, 0xe0, 0xbd,
  0x0d, 0x61, 0xf4, 0x3d, 0xcd, 0xfb, 0x97, 0xbe, 0xd7, 0x89, 0x86, 0x3d,
  0x7d, 0x00, 0xc9, 0x3e, 0x22, 0xdf, 0x0d, 0x3d, 0x22, 0x70, 0xc7, 0xbd,
  0xbc, 0xee, 0x56, 0x3d, 0x44, 0x21, 0xb3, 0xbe, 0xbf, 0x45, 0xbb, 0xbd,
  0xf0, 0xfd, 0xe2, 0x3d, 0xb8, 0x7e, 0xed, 0x3d, 0xe0, 0x1b, 0x89, 0x3e,
  0x7c, 0x99, 0x87, 0xbd, 0x24, 0x97, 0x21, 0xbe, 0x1e, 0x1e, 0x96, 0xbd,
  0xb8, 0x06, 0x99, 0xbe, 0x9c, 0x07, 0x0e, 0x3f, 0x8f, 0xcc, 0x44, 0x3c,
  0x44, 0xe8, 0xaa, 0x3c, 0x6a, 0x41, 0xb0, 0xbf, 0x81, 0x40, 0x92, 0x3e,
  0x9f, 0x9e, 0xca, 0xbe, 0x49, 0x73, 0xa1, 0xbe, 0x4a, 0x6c, 0x75, 0xbf,
  0xe6, 0xd8, 0x71, 0x3e, 0xfe, 0xf7, 0x76, 0xbf, 0x39, 0xf2, 0x3a, 0x3e,
  0xce, 0x26, 0xf4, 0x3c, 0x3a, 0x65, 0xb5, 0x3e, 0x06, 0x91, 0xb0, 0xbe,
  0x8e, 0xec, 0xf4, 0xbe, 0xfb, 0x98, 0x5c, 0xbe, 0x1b, 0x00, 0xac, 0x3c,
  0xe4, 0x7e, 0x95, 0xbf, 0xa1, 0x1a, 0xc0, 0x3e, 0xbf, 0x30, 0x03, 0x3f,
  0xc2, 0xc0, 0x45, 0xbe, 0x26, 0xe4, 0x92, 0x3d, 0xf7, 0xae, 0x49, 0x3e,
  0x56, 0x9e, 0x5d, 0xbf, 0x38, 0x8f, 0x0d, 0x3f, 0xbd, 0x93, 0x75, 0xbf,
  0xb9, 0x83, 0xd0, 0x3e, 0x10, 0x54, 0x0f, 0xbe, 0x52, 0xa8, 0xbc, 0xbf,
  0xcd, 0x1c, 0xd7, 0xbe, 0x39, 0xf1, 0x25, 0x3e, 0x55, 0x5e, 0x55, 0xbf,
  0xe1, 0x86, 0x37, 0x3d, 0xda, 0xd6, 0xc6, 0xbe, 0xc3, 0x35, 0x2a, 0x3e,
  0x57, 0xe6, 0xdd, 0xbe, 0x49, 0x60, 0x00, 0x3d, 0x95, 0x60, 0xad, 0xbc,
  0xf1, 0x3d, 0x46, 0xbf, 0x96, 0xe7, 0x61, 0x3d, 0x9f, 0xe0, 0x87, 0xbe,
  0xf6, 0xb3, 0x44, 0xbe, 0xeb, 0xa6, 0x89, 0x3e, 0x0c, 0xd5, 0xaa, 0x3d,
  0xf4, 0x68, 0xa9, 0xbe, 0xb9, 0x49, 0x90, 0x3e, 0x5a, 0x2e, 0x89, 0x3b,
  0xef, 0x99, 0x9c, 0xbe, 0xaf, 0xf4, 0x72, 0xbe, 0x2f, 0x4f, 0xf1, 0x3c,
  0x1b, 0xc7, 0xb9, 0x3e, 0x6f, 0x7c, 0xd1, 0xbd, 0x80, 0xe2, 0x1b, 0xbf,
  0x16, 0xb9, 0x5d, 0xbe, 0xea, 0xd8, 0x7b, 0xbe, 0x5c, 0x1b, 0x2f, 0xbe,
  0xed, 0x85, 0xd5, 0xbe, 0xbb, 0x8d, 0x55, 0x3e, 0xa6, 0x28, 0xbb, 0x3d,
  0x62, 0x45, 0xea, 0x3e, 0xe5, 0xf1, 0x2d, 0xbe, 0x88, 0xfe, 0xb9, 0xbe,
  0xa8, 0xa8, 0x89, 0xbe, 0xe7, 0xca, 0x99, 0xbd, 0xe1, 0x3f, 0xb7, 0x3d,
  0xb4, 0x13, 0x50, 0xbe, 0x33, 0x45, 0x63, 0xbe, 0x4f, 0x8f, 0xb4, 0xbf,
  0x3c, 0xce, 0x05, 0xc0, 0x5d, 0x0c, 0xc7, 0xbf, 0x43, 0x28, 0x38, 0x3f,
  0xc6, 0x40, 0xc8, 0xbf, 0xfd, 0x0f, 0x55, 0x3e, 0x32, 0xde, 0x4b, 0xbf,
  0xc3, 0x07, 0xb3, 0x3d, 0xd8, 0x4f, 0xfa, 0x3e, 0x72, 0x08, 0x56, 0xbf,
  0x01, 0xe5, 0x0b, 0x3e, 0x17, 0x3d, 0xd1, 0xbf, 0x51, 0x3a, 0xb1, 0xbf,
  0x85, 0xf8, 0x06, 0xbf, 0xd4, 0x9d, 0xb3, 0xbd, 0x64, 0x85, 0x19, 0xbf,
  0xd2, 0xcf, 0xb8, 0xbe, 0x81, 0x4c, 0x22, 0x3f, 0xca, 0x43, 0x4f, 0x3f,
  0x33, 0x89, 0xfb, 0xbd, 0xdc, 0x1f, 0x9b, 0xbe, 0xea, 0x03, 0xb9, 0xbf,
  0x23, 0x1a, 0x5e, 0x3d, 0xd4, 0x81, 0x92, 0xbf, 0x02, 0x6b, 0x9c, 0xbf,
  0x98, 0xab, 0x27, 0x3d, 0xf4, 0xf5, 0xd4, 0xbd, 0x9d, 0x98, 0xe9, 0xbe,
  0x55, 0x08, 0x3d, 0x3f, 0x1b, 0x60, 0x32, 0xbe, 0xb5, 0x8f, 0x4c, 0xbd,
  0xd2, 0x02, 0x4b, 0x3f, 0x08, 0x5a, 0x03, 0xc0, 0xf2, 0xf4, 0xfb, 0xbe,
  0xfe, 0x7c, 0x61, 0xbf, 0xc8, 0xf5, 0x9c, 0x3d, 0x03, 0x8d, 0x03, 0xbf,
  0x44, 0xcb, 0x5e, 0xbe, 0x4f, 0x6f, 0x71, 0xbe, 0x79, 0xb3, 0x89, 0xbf,
  0x54, 0x21, 0x06, 0x3f, 0x58, 0xe4, 0x8c, 0x3e, 0x0b, 0x1d, 0x79, 0x3e,
  0x04, 0xe0, 0x91, 0x3e, 0x79, 0x6e, 0x08, 0x3f, 0x62, 0x93, 0x2f, 0xbc,
  0xe5, 0x36, 0x82, 0xbf, 0x9d, 0x1b, 0x00, 0x3f, 0xc1, 0x16, 0x28, 0xbe,
  0xd9, 0xdb, 0x9f, 0xbe, 0x9c, 0xdc, 0xb2, 0xbd, 0xe3, 0x49, 0x88, 0xbe,
  0x77, 0x99, 0x83, 0xbf, 0x1c, 0xec, 0x94, 0x3e, 0xfb, 0xe6, 0x44, 0xbf,
  0x9d, 0x6b, 0xd4, 0xbe, 0xac, 0x4e, 0x49, 0xbf, 0x54, 0x54, 0xed, 0x3d,
  0xf0, 0xe1, 0x05, 0x3e, 0x68, 0x1d, 0x50, 0x3d, 0x9e, 0xeb, 0xd6, 0x3c,
  0xe0, 0x7d, 0xad, 0xbe, 0xc9, 0x14, 0xba, 0xbe, 0xda, 0xbd, 0x5e, 0x3e,
  0x3f, 0x68, 0x12, 0x3e, 0xb0, 0x07, 0x6e, 0x3e, 0x57, 0xd8, 0x0e, 0x3e,
  0xa9, 0x90, 0xa2, 0xbf, 0x08, 0x3a, 0xa8, 0x3e, 0x62, 0x97, 0xca, 0x3d,
  0xb2, 0x51, 0xc6, 0xbd, 0x2e, 0x09, 0xf4, 0xbd, 0x23, 0x34, 0x06, 0xbe,
  0x1b, 0xa6, 0x1a, 0xbf, 0xba, 0x1f, 0x4b, 0x3d, 0xbc, 0x2b, 0x57, 0x3e,
  0x16, 0xde, 0x05, 0xbd, 0x94, 0x63, 0xe6, 0x3e, 0xf1, 0xe7, 0xa1, 0xbd,
  0x5c, 0x0c, 0x66, 0xbd, 0x31, 0xa5, 0xd4, 0xbc, 0x93, 0xe4, 0xb8, 0xbf,
  0xe0, 0x37, 0x8d, 0xbf, 0x87, 0xa7, 0x0b, 0xbd, 0xe5, 0x8c, 0x05, 0x3e,
  0xb5, 0x0d, 0xcd, 0xbe, 0xd6, 0xf8, 0x16, 0x3d, 0x6b, 0x3d, 0x5c, 0xbd,
  0x77, 0x46, 0x9b, 0x3e, 0x74, 0xc1, 0x3c, 0xbe, 0x61, 0x01, 0x0b, 0x3e,
  0x36, 0x27, 0xbf, 0x3b, 0x31, 0x07, 0x84, 0xbf, 0xb0, 0x0c, 0x3f, 0x3d,
  0xaa, 0x2f, 0x98, 0x3d, 0xb5, 0xb5, 0x8e, 0xbe, 0x2b, 0xa8, 0xfb, 0xbe,
  0xb4, 0xa2, 0xb3, 0xbf, 0x69, 0x61, 0x8a, 0xbf, 0x47, 0x19, 0x8a, 0x3e,
  0x45, 0xd8, 0x5b, 0xbf, 0x9c, 0xc1, 0x17, 0xbe, 0x18, 0x31, 0x37, 0xbf,
  0xe7, 0x36, 0xf5, 0xbe, 0x21, 0x08, 0xd2, 0x3e, 0x4a, 0x4c, 0x41, 0x3e,
  0xde, 0x30, 0xea, 0xbb, 0x87, 0xab, 0x93, 0x3e, 0x45, 0x0c, 0xb3, 0x3c,
  0xa8, 0x71, 0x2f, 0xbf, 0x19, 0xdd, 0xc0, 0x3d, 0x89, 0x4c, 0x96, 0xbd,
  0x89, 0x21, 0xaa, 0x3d, 0xa3, 0xf4, 0x25, 0x3f, 0x3f, 0xb2, 0xa3, 0x3d,
  0x5f, 0xee, 0x39, 0x3e, 0x9b, 0x82, 0xfc, 0xbe, 0xfc, 0xef, 0xa2, 0x3e,
  0x28, 0x2f, 0x49, 0xbf, 0x7f, 0x33, 0x06, 0xbe, 0x4c, 0x4c, 0xa5, 0xbe,
  0x12, 0xdb, 0x88, 0xbf, 0xcf, 0x53, 0xc2, 0xbe, 0xcc, 0x8e, 0x73, 0xbf,
  0x61, 0x1a, 0x4f, 0x3e, 0x8e, 0x16, 0x51, 0xbf, 0xcd, 0x60, 0x03, 0xbf,
  0x78, 0x8d, 0x15, 0x3f, 0x27, 0x78, 0x05, 0xbf, 0x24, 0x97, 0x93, 0xbf,
  0x42, 0x83, 0x12, 0x3f, 0xff, 0x8e, 0xca, 0xbe, 0x94, 0xdb, 0x8f, 0xbe,
  0xad, 0x62, 0x59, 0x3e, 0x45, 0xa1, 0x49, 0xbd, 0xad, 0x77, 0x00, 0xbe,
  0xe0, 0x9d, 0x97, 0xbd, 0x6d, 0x00, 0x04, 0xc0, 0xc6, 0xaa, 0x6e, 0x3d,
  0x0c, 0x48, 0x9b, 0x3b, 0x07, 0xa8, 0x3d, 0xbf, 0x05, 0x19, 0x3b, 0xbf,
  0xa8, 0xae, 0xe7, 0x3e, 0xb9, 0xcf, 0xd0, 0xbf, 0x28, 0x06, 0xaf, 0xbf,
  0x2f, 0x19, 0x66, 0xbe, 0xf6, 0x45, 0xbe, 0xbe, 0xab, 0xcb, 0xc6, 0xbc,
  0x22, 0xc0, 0x1c, 0x3f, 0xc6, 0x9c, 0xe3, 0xbf, 0xfe, 0x30, 0xb4, 0x3e,
  0x68, 0x42, 0xd8, 0xbe, 0xa5, 0x17, 0x33, 0xbf, 0x4b, 0xc2, 0xab, 0xbe,
  0xc2, 0x2a, 0x39, 0xbd, 0x13, 0x1c, 0xd2, 0xbe, 0xda, 0xbf, 0xa9, 0x3e,
  0x06, 0x43, 0x32, 0xbf, 0xaf, 0xac, 0x02, 0x3f, 0x31, 0x4e, 0x9c, 0xbe,
  0xeb, 0x7e, 0xc9, 0xbf, 0x89, 0x60, 0xc8, 0x3d, 0xf0, 0xa1, 0x39, 0xbe,
  0x38, 0x27, 0x25, 0xbe, 0x6e, 0x54, 0xa1, 0x3e, 0x50, 0x61, 0x8e, 0xbe,
  0x1a, 0xd7, 0x60, 0xbe, 0x18, 0x78, 0x1b, 0xbf, 0x43, 0x4c, 0x50, 0x3d,
  0x3b, 0x54, 0x03, 0x3e, 0xfe, 0x8b, 0x66, 0xbf, 0xc4, 0xfa, 0x1f, 0x3e,
  0xec, 0x07, 0xe0, 0x3d, 0xd6, 0x85, 0xb2, 0x3e, 0x8d, 0xd2, 0x1b, 0xbf,
  0x43, 0x72, 0x3e, 0x3e, 0x96, 0x27, 0x62, 0xbe, 0x77, 0xa0, 0x66, 0xbe,
  0x72, 0x00, 0x86, 0xbf, 0x75, 0x42, 0x4e, 0xbe, 0x84, 0xbb, 0x75, 0xbf,
  0x69, 0x2f, 0xdd, 0x3e, 0x1b, 0xfe, 0x51, 0xbf, 0xd3, 0xcc, 0x66, 0x3e,
  0x67, 0x78, 0x35, 0xbe, 0xf5, 0xf4, 0x86, 0xbe, 0xc5, 0x0c, 0x79, 0xbe,
  0x5a, 0x82, 0xb9, 0x3e, 0x3a, 0x76, 0x27, 0xbf, 0x81, 0xe0, 0xd7, 0x3d,
  0x81, 0xbd, 0x98, 0xbf, 0x40, 0xf9, 0xdf, 0x3d, 0xab, 0x41, 0xab, 0xbe,
  0x82, 0xdb, 0xff, 0x3e, 0x30, 0xa2, 0xb4, 0xbe, 0xd4, 0xe2, 0xb0, 0xbf,
  0x38, 0xbd, 0xc9, 0xbf, 0x35, 0xbd, 0x6d, 0x3a, 0x0d, 0x93, 0xaa, 0xbf,
  0xde, 0x88, 0x35, 0x3e, 0xea, 0x66, 0xcd, 0xbe, 0x0b, 0x5e, 0x65, 0x3e,
  0xf2, 0x48, 0xf7, 0x3d, 0xb3, 0x59, 0x96, 0xbe, 0x53, 0xf0, 0x11, 0xbf,
  0xa3, 0xad, 0x43, 0x3d, 0xf5, 0xcb, 0xa3, 0xbe, 0x8c, 0xfb, 0xdb, 0xbc,
  0xa2, 0x49, 0x14, 0x3e, 0x92, 0xce, 0x02, 0xbf, 0x2b, 0x14, 0xea, 0xbe,
  0x28, 0xd0, 0x1f, 0x3e, 0x82, 0x97, 0x35, 0xbe, 0x37, 0x4f, 0xe8, 0x3e,
  0xdc, 0xb1, 0x81, 0xbf, 0x01, 0xb1, 0x17, 0x3e, 0x60, 0x9e, 0x1e, 0x3e,
  0x09, 0x3c, 0xd4, 0xbf, 0x7a, 0x59, 0xab, 0xbe, 0x70, 0xa2, 0x94, 0xbe,
  0xa2, 0x1b, 0x1e, 0xbc, 0xe5, 0x27, 0xb1, 0x3e, 0x01, 0x40, 0x4d, 0x3e,
  0xd5, 0x22, 0x1d, 0xbe, 0xe4, 0x25, 0x89, 0xbd, 0x49, 0xb5, 0x89, 0x3e,
  0x28, 0xa2, 0xe6, 0x3e, 0x48, 0x70, 0x2f, 0x3f, 0x46, 0x93, 0x4d, 0x3e,
  0x38, 0x7b, 0x94, 0x3e, 0x10, 0x30, 0x52, 0x3d, 0x5b, 0x8c, 0xde, 0xbe,
  0xed, 0xe5, 0xd8, 0xbe, 0x34, 0x01, 0x27, 0xbe, 0xc5, 0xe9, 0x13, 0xbe,
  0x69, 0xab, 0x24, 0x3e, 0x21, 0x37, 0xae, 0x3e, 0x50, 0xd4, 0x90, 0xbd,
  0x51, 0xed, 0x55, 0x3e, 0xfe, 0xcf, 0x97, 0xbf, 0x9a, 0xcf, 0xcb, 0xbc,
  0x0d, 0xea, 0x50, 0xbf, 0xc7, 0x71, 0x63, 0xbf, 0x78, 0xcc, 0x8c, 0x3d,
  0xfb, 0xc2, 0x8d, 0x3d, 0x05, 0x1f, 0xee, 0x3d, 0xb6, 0x4e, 0x11, 0x3d,
  0xe0, 0x0e, 0xe9, 0xbe, 0x28, 0xff, 0xbb, 0xbd, 0xb8, 0x4e, 0x54, 0xbe,
  0xee, 0x40, 0x09, 0x3e, 0x79, 0x9e, 0x91, 0xbd, 0xfc, 0x9d, 0x73, 0xbf,
  0x51, 0xc5, 0x95, 0xbd, 0x7d, 0xc7, 0x8e, 0xbd, 0x29, 0x20, 0xcc, 0xbe,
  0x69, 0xc3, 0x83, 0x3e, 0x58, 0xa4, 0xac, 0x3b, 0x68, 0x13, 0xb4, 0x3e,
  0x71, 0x18, 0x5a, 0xbf, 0xe0, 0x43, 0x49, 0x3e, 0xb1, 0xb4, 0xbb, 0xbd,
  0x91, 0xda, 0xcf, 0x3e, 0x09, 0x0f, 0xa5, 0x3e, 0x9e, 0x65, 0x95, 0xbe,
  0x03, 0x68, 0x1b, 0xc0, 0xdb, 0x74, 0x03, 0xbf, 0xd1, 0x19, 0x9e, 0xbd,
  0x86, 0x97, 0x38, 0xbe, 0x1f, 0x2e, 0x71, 0x3e, 0x42, 0xe4, 0x35, 0x3e,
  0x73, 0xdc, 0x2a, 0xbf, 0x3c, 0x17, 0xc1, 0xbd, 0x87, 0xca, 0x85, 0xbf,
  0x97, 0x2f, 0x81, 0xbf, 0x98, 0x11, 0x53, 0x3e, 0x27, 0xa9, 0x23, 0x3e,
  0x45, 0xb6, 0xfe, 0xbf, 0x0f, 0x3c, 0x7c, 0x3e, 0xcc, 0xce, 0xb7, 0x3e,
  0xf4, 0x8f, 0x95, 0x3e, 0xcc, 0x29, 0x12, 0x3e, 0xf2, 0x4b, 0x95, 0x3d,
  0x6d, 0xe9, 0x15, 0x3c, 0x34, 0x23, 0x0a, 0xbf, 0x62, 0x07, 0xc0, 0xbe,
  0x17, 0xe5, 0x68, 0xbd, 0x3f, 0xfe, 0x19, 0xbf, 0xb0, 0xf8, 0x06, 0xc0,
  0x4c, 0x92, 0x4c, 0xbe, 0xdc, 0x18, 0xd8, 0xbd, 0x3d, 0x21, 0x2c, 0xbf,
  0x05, 0xb3, 0xdb, 0x3e, 0xdc, 0xf8, 0xd2, 0x3c, 0x86, 0x3b, 0x0c, 0x3e,
  0x17, 0xd4, 0x7a, 0x3e, 0xf9, 0x48, 0x5c, 0xbe, 0xcd, 0x84, 0x19, 0xc0,
  0x2c, 0x3c, 0xb7, 0xbd, 0x79, 0x30, 0x88, 0xbf, 0xe7, 0x5a, 0x1e, 0xbe,
  0x55, 0xfc, 0x91, 0xbe, 0xdb, 0xa1, 0xd2, 0x3e, 0x03, 0x58, 0xa2, 0xbe,
  0x8a, 0xb2, 0xae, 0xbd, 0xc7, 0x4d, 0xf8, 0xbe, 0xf9, 0x9c, 0x83, 0xbf,
  0x11, 0x2d, 0x16, 0x3e, 0x13, 0x13, 0x19, 0x3e, 0xcc, 0xd6, 0x1e, 0xc0,
  0x91, 0xe4, 0x04, 0x3e, 0xd5, 0x79, 0xae, 0x3e, 0x20, 0x14, 0x6c, 0x3e,
  0xca, 0x63, 0x74, 0xbe, 0xc9, 0xa5, 0xc9, 0xbe, 0x56, 0x26, 0xc7, 0xbe,
  0xfb, 0x4d, 0x16, 0xbf, 0x30, 0xf3, 0x6f, 0xbf, 0x3d, 0x75, 0x99, 0x3e,
  0x19, 0x30, 0x81, 0x3d, 0x21, 0xb5, 0x94, 0xbf, 0xf4, 0x39, 0x0a, 0x3e,
  0xd0, 0xb0, 0xef, 0x3c, 0x8c, 0xd6, 0x81, 0xbf, 0x87, 0x9d, 0x6d, 0xbd,
  0x11, 0xb1, 0x75, 0x3e, 0x5e, 0xa9, 0x2f, 0x3b, 0x8b, 0xc2, 0x2e, 0x3e,
  0xf7, 0xcc, 0x40, 0xbe, 0xed, 0x2b, 0x95, 0x3e, 0x93, 0x9d, 0x3b, 0xbb,
  0x38, 0xc0, 0x54, 0x3e, 0x37, 0x55, 0x93, 0xbe, 0x88, 0xb7, 0xff, 0x3d,
  0xd5, 0xdd, 0x68, 0xbe, 0xf3, 0x04, 0x32, 0x3b, 0x8c, 0x98, 0xdf, 0x3d,
  0x88, 0x68, 0x6f, 0xbf, 0x67, 0x2e, 0xa5, 0xbf, 0x58, 0x97, 0x79, 0x3e,
  0xec, 0x62, 0xa4, 0x3e, 0x56, 0xd8, 0x10, 0x3e, 0x63, 0x1e, 0xdf, 0xbe,
  0x30, 0x80, 0x43, 0xbb, 0x7d, 0xd4, 0x1a, 0xbe, 0xfa, 0x50, 0x7c, 0xbf,
  0xce, 0x4c, 0xa0, 0xbe, 0xb2, 0xcd, 0xe9, 0xbd, 0xa1, 0x33, 0x02, 0xbe,
  0x78, 0x5f, 0xaa, 0x3e, 0x98, 0x43, 0x10, 0x3e, 0x2d, 0x8f, 0xaf, 0xbe,
  0x70, 0x1b, 0xdc, 0xbd, 0x99, 0x5b, 0x1a, 0x3f, 0x5d, 0x73, 0x50, 0x3e,
  0x6a, 0x1a, 0x94, 0xbf, 0x44, 0x43, 0x8e, 0x3e, 0xc6, 0x3d, 0x56, 0xbe,
  0xbb, 0x52, 0xa8, 0xbe, 0x02, 0x46, 0x1e, 0x3e, 0x0d, 0x79, 0xa1, 0xbf,
  0x84, 0xa9, 0xc9, 0x3d, 0x5f, 0xbe, 0xa9, 0xbe, 0xbe, 0xfe, 0x2b, 0x3e,
  0x67, 0x5c, 0x22, 0x3d, 0xec, 0x88, 0xaf, 0x3e, 0xf1, 0x55, 0xa6, 0xbf,
  0x03, 0xe6, 0xcc, 0x3e, 0xe0, 0xbd, 0x3a, 0x3d, 0x4d, 0x3d, 0xe8, 0xbf,
  0x14, 0x5d, 0x99, 0xbf, 0x03, 0x7a, 0xfd, 0xbd, 0xd2, 0xcb, 0xbd, 0xbd,
  0xef, 0xce, 0xdd, 0x3d, 0xff, 0x39, 0x93, 0xbf, 0x62, 0xc6, 0x1c, 0xbc,
  0x0e, 0x40, 0x42, 0xbc, 0x20, 0xbc, 0x6a, 0xbf, 0xd8, 0x44, 0x01, 0x3e,
  0xb0, 0x80, 0xe9, 0x3d, 0xf6, 0x1d, 0x05, 0xc0, 0x24, 0xcd, 0xb8, 0x3e,
  0x49, 0xd5, 0x1d, 0xbf, 0x67, 0xd5, 0x05, 0xbe, 0x95, 0x75, 0xa4, 0x3e,
  0x23, 0x64, 0x19, 0xbf, 0x0b, 0x58, 0x84, 0x3e, 0x16, 0x42, 0x5b, 0x3e,
  0xae, 0x87, 0x59, 0xbc, 0xa8, 0x34, 0x82, 0x3d, 0x1f, 0xa1, 0x1b, 0x3e,
  0xe0, 0x2b, 0x60, 0x3b, 0xe6, 0xa2, 0x30, 0x3e, 0xcc, 0x67, 0x5c, 0xbd,
  0x38, 0xf8, 0x7c, 0xbf, 0x79, 0x32, 0x09, 0x3f, 0x46, 0x05, 0xe4, 0x3d,
  0x4d, 0xff, 0xbb, 0x3e, 0x3f, 0x8d, 0xb8, 0xbe, 0x6d, 0x0d, 0xa3, 0x3e,
  0xa6, 0xda, 0x12, 0x3e, 0x2f, 0x64, 0xf6, 0x3c, 0xf4, 0xd3, 0xbb, 0xbf,
  0xcd, 0xbc, 0x74, 0xbe, 0x18, 0x52, 0xb8, 0x3e, 0xf6, 0x70, 0xe7, 0xbe,
  0xa4, 0x87, 0x87, 0x3d, 0x5d, 0x9b, 0xd8, 0x3d, 0xfa, 0xa1, 0x5d, 0x3e,
  0xa4, 0x85, 0x86, 0xbe, 0xee, 0xd7, 0x32, 0xbe, 0xd9, 0xe9, 0xca, 0x3d,
  0xf2, 0x3e, 0xac, 0xbf, 0xe8, 0x74, 0xbf, 0x3e, 0xc7, 0x9e, 0x89, 0xbf,
  0x5f, 0xd7, 0x0e, 0xbe, 0x6a, 0x62, 0x17, 0xbf, 0xda, 0x17, 0xa7, 0x3c,
  0xec, 0xde, 0xe3, 0x3e, 0x25, 0x82, 0xf4, 0xbf, 0x3d, 0xfb, 0x19, 0x3e,
  0x3d, 0x84, 0x5a, 0xbe, 0xc9, 0x6f, 0x1d, 0x3e, 0x48, 0x3a, 0x4f, 0x3e,
  0xab, 0x8b, 0xba, 0xbf, 0x49, 0x7f, 0xad, 0xbe, 0x65, 0x18, 0xd6, 0x3e,
  0x9c, 0x7d, 0x7c, 0x3e, 0xc0, 0xcd, 0xdd, 0xbb, 0x16, 0x41, 0xd4, 0x3d,
  0x26, 0x8d, 0xc7, 0xbb, 0x00, 0x15, 0x4b, 0xbf, 0x79, 0xdb, 0x4a, 0xbf,
  0xb5, 0x93, 0x8a, 0xbf, 0x9d, 0x4d, 0x05, 0xbf, 0x5c, 0x97, 0x59, 0x3e,
  0xc7, 0xfe, 0xbf, 0x3e, 0x05, 0x3c, 0x5e, 0xbc, 0x85, 0x82, 0x36, 0xbd,
  0x33, 0xab, 0xf3, 0xbe, 0xdb, 0xdb, 0xe5, 0xbd, 0xf4, 0xa3, 0xe1, 0x3d,
  0x35, 0x48, 0x8b, 0xbe, 0x4b, 0xed, 0xd5, 0x3c, 0x0a, 0x7c, 0xff, 0xbe,
  0xb1, 0x4d, 0xbf, 0x3d, 0xd5, 0xf3, 0xe8, 0xbd, 0xc3, 0x29, 0xe7, 0xbf,
  0xc6, 0x65, 0x54, 0x3e, 0xc4, 0xd9, 0x8c, 0x3e, 0x99, 0x72, 0x01, 0x3f,
  0x9d, 0x40, 0xa6, 0xbe, 0x98, 0x12, 0xd6, 0xbe, 0x19, 0xd2, 0x33, 0x3b,
  0xe3, 0x56, 0x9e, 0xbe, 0x1c, 0xe3, 0xdf, 0xbe, 0xd4, 0xde, 0x8f, 0xbd,
  0x6b, 0x2e, 0x86, 0x3e, 0x02, 0xda, 0x2b, 0x3f, 0x11, 0xa3, 0xaa, 0x3d,
  0x9a, 0x7f, 0xcf, 0xbe, 0xd7, 0x84, 0x52, 0xbf, 0x9c, 0x00, 0x88, 0x3d,
  0xa7, 0x03, 0x37, 0xbf, 0xae, 0x59, 0x98, 0xbf, 0xc0, 0x0c, 0xc6, 0xbe,
  0xcf, 0x32, 0xd3, 0x3e, 0x7c, 0x43, 0xc1, 0x3d, 0x9f, 0xd8, 0x8f, 0x3e,
  0x20, 0x93, 0x1a, 0x3e, 0x73, 0x5e, 0xb0, 0xbe, 0x2f, 0xfa, 0x9f, 0xbf,
  0xe0, 0xdd, 0x84, 0xbf, 0x7f, 0x79, 0xbb, 0xbf, 0xdd, 0x32, 0xc3, 0xbe,
  0x60, 0xd5, 0xd6, 0xbe, 0x1c, 0xeb, 0xc7, 0x3e, 0x24, 0x0c, 0x59, 0xbf,
  0xe6, 0x75, 0x25, 0x3e, 0x37, 0x26, 0x88, 0x3d, 0x0b, 0x97, 0x17, 0x3e,
  0x85, 0x06, 0xcd, 0xbf, 0x64, 0x4a, 0x93, 0xbf, 0x5c, 0x93, 0xf3, 0xbe,
  0x37, 0x3c, 0x91, 0xbe, 0x3e, 0x0f, 0x01, 0x3e, 0xff, 0x4d, 0x55, 0xbf,
  0x9a, 0x79, 0xb0, 0x3e, 0x3d, 0x19, 0xab, 0x3e, 0xac, 0x12, 0xd8, 0xbf,
  0x56, 0x49, 0xb0, 0xbe, 0xfb, 0x2c, 0x09, 0xc0, 0x5d, 0x79, 0xa1, 0xbf,
  0x97, 0xdd, 0xdc, 0xbe, 0xeb, 0x15, 0x2b, 0x3e, 0x7c, 0xbb, 0xf5, 0x3d,
  0xd1, 0xce, 0xd8, 0x3e, 0x58, 0x9b, 0x5c, 0x3e, 0x91, 0x40, 0xae, 0xbd,
  0x7b, 0x25, 0x5b, 0x3e, 0x09, 0xc2, 0x1f, 0x3e, 0x92, 0x9e, 0xd2, 0xbf,
  0x48, 0x1d, 0x91, 0x3e, 0xd0, 0x2a, 0xcc, 0x3d, 0x7a, 0xcc, 0x39, 0x3e,
  0xac, 0xe2, 0xf0, 0x3d, 0x26, 0x86, 0x7a, 0xbe, 0x2a, 0xcb, 0xe0, 0xbf,
  0x28, 0xcb, 0x4a, 0xbe, 0x07, 0xf8, 0xa6, 0xbf, 0xf3, 0xf9, 0x0e, 0xbd,
  0xa1, 0xfa, 0x71, 0x3e, 0x10, 0x99, 0x3d, 0xbf, 0x86, 0x8b, 0x21, 0xbf,
  0x94, 0xbb, 0xb6, 0xbd, 0x0e, 0x3e, 0xd3, 0xbf, 0x75, 0xe4, 0x7f, 0xbe,
  0x05, 0x96, 0x28, 0xbe, 0x88, 0x79, 0x0d, 0xbf, 0xa0, 0x00, 0x7e, 0xbe,
  0x8f, 0xe2, 0x01, 0xbe, 0x6d, 0x48, 0xfb, 0xbb, 0x5b, 0x3e, 0xc9, 0x3e,
  0x72, 0x20, 0x55, 0x3e, 0x00, 0xb5, 0x62, 0xbf, 0x92, 0xd6, 0xf8, 0xbd,
  0x1c, 0x0e, 0x68, 0xbf, 0x24, 0x39, 0xd2, 0x3e, 0x86, 0xab, 0xd4, 0xbf,
  0xc7, 0x55, 0xad, 0xbf, 0xa6, 0x71, 0xb6, 0x3e, 0x7a, 0xfe, 0x42, 0xbe,
  0x24, 0xfe, 0x60, 0xbf, 0xca, 0x6e, 0xbb, 0x3e, 0x68, 0xba, 0x17, 0xbf,
  0x6e, 0x14, 0xd8, 0xbf, 0x0a, 0x0e, 0xd8, 0xbf, 0xca, 0x8c, 0xd2, 0x3e,
  0xf6, 0xdf, 0x36, 0xbe, 0x36, 0xef, 0x0b, 0xbf, 0x27, 0x16, 0x94, 0x3e,
  0x0f, 0x19, 0x26, 0xbf, 0x61, 0xc4, 0x49, 0x3e, 0x4e, 0x91, 0x9d, 0x3e,
  0xdc, 0x55, 0xfd, 0x3e, 0xe4, 0xe3, 0x62, 0xbf, 0x86, 0x89, 0x8e, 0xbf,
  0xf5, 0x28, 0x12, 0x3f, 0xf9, 0x99, 0xa0, 0xbe, 0x7b, 0xdc, 0x2f, 0xbe,
  0xce, 0x4a, 0x13, 0x3e, 0xed, 0xb7, 0x9e, 0xbe, 0x65, 0x7a, 0x9f, 0x3d,
  0x0c, 0x60, 0x12, 0x3e, 0x42, 0x7a, 0x50, 0xbf, 0x93, 0x23, 0x83, 0x3e,
  0xb3, 0x7b, 0xe9, 0x3e, 0xc0, 0x15, 0x3c, 0xbe, 0x72, 0xb4, 0x1b, 0xbf,
  0xb8, 0x5c, 0x36, 0xbf, 0xf2, 0x0b, 0x1f, 0xbe, 0xdd, 0x31, 0x00, 0x3f,
  0xfa, 0xd1, 0x91, 0x3d, 0xdd, 0xe4, 0xe5, 0x3d, 0xd1, 0xeb, 0x5d, 0xbf,
  0x9e, 0x16, 0xf2, 0x3e, 0x0c, 0x4e, 0x7e, 0xbf, 0xa3, 0x30, 0x27, 0xbc,
  0x6d, 0x7f, 0x2a, 0xbf, 0x10, 0x83, 0x95, 0xbe, 0x0e, 0xb6, 0xb4, 0xbd,
  0xda, 0x40, 0xb9, 0xbd, 0x36, 0x3e, 0x15, 0xbf, 0xb4, 0x98, 0xf9, 0xbe,
  0xff, 0xc9, 0x94, 0xbf, 0x35, 0xe8, 0x50, 0x3e, 0x08, 0x79, 0x12, 0xbf,
  0x61, 0xff, 0x65, 0x3e, 0xf8, 0x55, 0x2d, 0x3e, 0xa2, 0x0c, 0x39, 0xbf,
  0x55, 0x58, 0x21, 0x3e, 0x2a, 0xca, 0xd7, 0xbd, 0x87, 0xb1, 0x18, 0x3e,
  0x72, 0xfb, 0xb0, 0xbe, 0x21, 0x5f, 0xee, 0xbd, 0xcb, 0x9c, 0xc5, 0x3d,
  0x8e, 0x9a, 0x2e, 0x3d, 0x34, 0x7a, 0xe9, 0x3d, 0xdf, 0x8d, 0x35, 0x3e,
  0x11, 0x18, 0x18, 0x3e, 0xdf, 0x57, 0xb1, 0xbe, 0xc2, 0x51, 0x2e, 0xbe,
  0x56, 0xbc, 0x8b, 0xbe, 0x69, 0x7c, 0xcd, 0xbe, 0x22, 0x3d, 0x74, 0x3d,
  0x44, 0x9d, 0x77, 0xbe, 0x34, 0xf7, 0x7e, 0xbe, 0xdb, 0x09, 0x96, 0x3e,
  0x60, 0x3c, 0xf7, 0xbd, 0x9e, 0x1b, 0x8c, 0xbe, 0x55, 0x54, 0x7f, 0xbb,
  0xbd, 0x85, 0xaa, 0x3e, 0x40, 0xaa, 0xa7, 0x3d, 0x6d, 0x6d, 0x33, 0xbd,
  0x3c, 0xe9, 0x96, 0x3d, 0x41, 0xaf, 0x23, 0xbd, 0xa0, 0xb8, 0xb3, 0x3d,
  0xb2, 0x37, 0x86, 0xbe, 0x47, 0x2e, 0xe6, 0x3e, 0xac, 0x0f, 0x34, 0xbf,
  0x84, 0xdd, 0x88, 0xbf, 0x8c, 0xf4, 0x33, 0x3e, 0x63, 0x1a, 0xe4, 0x3e,
  0xa1, 0xfe, 0xb4, 0x3d, 0x03, 0xb6, 0x6c, 0x3e, 0x4e, 0x52, 0xa3, 0xbe,
  0xbf, 0x06, 0x0e, 0x3f, 0x43, 0xe4, 0x6c, 0xbe, 0x90, 0xdd, 0xaf, 0xbf,
  0x30, 0xf0, 0x00, 0xbf, 0xd1, 0x6d, 0x1d, 0x3d, 0xbf, 0xe3, 0x91, 0xbe,
  0x60, 0x3c, 0x05, 0x3d, 0xc7, 0x7e, 0x85, 0x3e, 0x65, 0x0b, 0x92, 0x3e,
  0xcc, 0x44, 0x77, 0x3e, 0x0a, 0x3b, 0x8e, 0xbe, 0x97, 0xd7, 0x90, 0xbd,
  0xc0, 0x78, 0xaf, 0xbe, 0x78, 0x08, 0xba, 0x3c, 0x94, 0x2d, 0x0f, 0x3d,
  0x08, 0xad, 0xae, 0xbd, 0xb2, 0x92, 0x0d, 0x3f, 0x6f, 0x50, 0x71, 0xbe,
  0x26, 0x55, 0xd2, 0xbe, 0xa3, 0xfc, 0x66, 0xbe, 0xd3, 0x58, 0x4a, 0xbf,
  0x61, 0xea, 0x51, 0xbd, 0x41, 0x81, 0xa2, 0xbf, 0xa5, 0xb0, 0x9b, 0x3c,
  0x16, 0xe3, 0xe1, 0xbf, 0xaa, 0x45, 0xc2, 0x3e, 0xc0, 0x32, 0x18, 0x3a,
  0x74, 0x45, 0xc4, 0xbe, 0x81, 0x4c, 0x84, 0x3c, 0xe9, 0x21, 0x85, 0x3e,
  0x62, 0xd6, 0xa2, 0x3e, 0x37, 0x1e, 0x6b, 0xbe, 0x5b, 0x3b, 0x71, 0xbe,
  0xa6, 0xa4, 0x9a, 0x3d, 0x84, 0xa6, 0x92, 0xbe, 0xea, 0x29, 0x31, 0x3e,
  0xc7, 0xfc, 0xa8, 0x3e, 0x68, 0x25, 0x2d, 0x3e, 0xaa, 0xe7, 0x93, 0xbe,
  0x6d, 0x25, 0xa3, 0x3e, 0xe9, 0xa0, 0x9b, 0x3e, 0xa0, 0xe3, 0x9c, 0xbe,
  0xe2, 0x6a, 0xd3, 0xbe, 0xa1, 0xc6, 0x70, 0xbd, 0xe1, 0x71, 0x89, 0x3c,
  0x70, 0xca, 0xe3, 0x3e, 0xf2, 0xd9, 0x72, 0xbe, 0x5b, 0x8e, 0x0a, 0x3e,
  0x86, 0x38, 0xf5, 0xbd, 0x52, 0xaf, 0xcc, 0x3e, 0x2c, 0x56, 0x3f, 0xbe,
  0x7e, 0x5b, 0xe1, 0x3d, 0xad, 0xc1, 0x6f, 0xbf, 0x08, 0xdc, 0x2f, 0xbe,
  0xb0, 0xe2, 0x82, 0xbe, 0xd9, 0x80, 0xc0, 0x3b, 0x86, 0x27, 0xa1, 0xbe,
  0x5f, 0x56, 0x0c, 0x3e, 0xcc, 0x7b, 0xb6, 0x3d, 0x08, 0x72, 0xd5, 0x3d,
  0x02, 0xae, 0xa0, 0x3e, 0xb7, 0x74, 0x0b, 0x3e, 0xff, 0x41, 0xaf, 0x3e,
  0x7d, 0x67, 0xe3, 0x3d, 0x2b, 0x5f, 0x93, 0x3d, 0xe9, 0x0e, 0xf0, 0xbe,
  0xf3, 0x4d, 0x75, 0xbe, 0x0f, 0xcf, 0xc1, 0x3d, 0x38, 0xa9, 0xa7, 0x3e,
  0x70, 0xec, 0x3c, 0x3d, 0x6a, 0x3b, 0x50, 0xbe, 0x64, 0xbf, 0x1e, 0x3e,
  0x30, 0x5d, 0x03, 0x3e, 0x42, 0xfd, 0x16, 0x3e, 0x87, 0x08, 0x09, 0xc0,
  0xd5, 0xa2, 0xb0, 0xbd, 0x2e, 0x16, 0x81, 0x3e, 0x18, 0x57, 0x5c, 0xbe,
  0x66, 0x45, 0x1d, 0xbe, 0xbd, 0xde, 0xb6, 0x3e, 0x2f, 0xb0, 0x1a, 0xbe,
  0x88, 0xca, 0x74, 0xbd, 0x22, 0x84, 0x11, 0xbd, 0x89, 0x94, 0x90, 0x3e,
  0x0c, 0x0b, 0xf0, 0xbf, 0xfb, 0xe7, 0x07, 0xbe, 0xd7, 0xf1, 0x99, 0xbe,
  0x90, 0x0c, 0xae, 0xbe, 0xe9, 0xd3, 0x6c, 0xbf, 0x00, 0xf9, 0xff, 0xff,
  0x04, 0xf9, 0xff, 0xff, 0x0f, 0x00, 0x00, 0x00, 0x4d, 0x4c, 0x49, 0x52,
  0x20, 0x43, 0x6f, 0x6e, 0x76, 0x65, 0x72, 0x74, 0x65, 0x64, 0x2e, 0x00,
  0x01, 0x00, 0x00, 0x00, 0x14, 0x00, 0x00, 0x00, 0x00, 0x00, 0x0e, 0x00,
  0x18, 0x00, 0x14, 0x00, 0x10, 0x00, 0x0c, 0x00, 0x08, 0x00, 0x04, 0x00,
  0x0e, 0x00, 0x00, 0x00, 0x14, 0x00, 0x00, 0x00, 0x1c, 0x00, 0x00, 0x00,
  0x5c, 0x01, 0x00, 0x00, 0x60, 0x01, 0x00, 0x00, 0x64, 0x01, 0x00, 0x00,
  0x04, 0x00, 0x00, 0x00, 0x6d, 0x61, 0x69, 0x6e, 0x00, 0x00, 0x00, 0x00,
  0x05, 0x00, 0x00, 0x00, 0x04, 0x01, 0x00, 0x00, 0xbc, 0x00, 0x00, 0x00,
  0x84, 0x00, 0x00, 0x00, 0x50, 0x00, 0x00, 0x00, 0x14, 0x00, 0x00, 0x00,
  0x00, 0x00, 0x0e, 0x00, 0x1a, 0x00, 0x14, 0x00, 0x10, 0x00, 0x0c, 0x00,
  0x0b, 0x00, 0x04, 0x00, 0x0e, 0x00, 0x00, 0x00, 0x1c, 0x00, 0x00, 0x00,
  0x00, 0x00, 0x00, 0x09, 0x1c, 0x00, 0x00, 0x00, 0x20, 0x00, 0x00, 0x00,
  0x01, 0x00, 0x00, 0x00, 0x00, 0x00, 0x06, 0x00, 0x08, 0x00, 0x04, 0x00,
  0x06, 0x00, 0x00, 0x00, 0x00, 0x00, 0x80, 0x3f, 0x01, 0x00, 0x00, 0x00,
  0x0d, 0x00, 0x00, 0x00, 0x01, 0x00, 0x00, 0x00, 0x0c, 0x00, 0x00, 0x00,
  0x66, 0xff, 0xff, 0xff, 0x10, 0x00, 0x00, 0x00, 0x00, 0x00, 0x00, 0x08,
  0x0c, 0x00, 0x00, 0x00, 0x10, 0x00, 0x00, 0x00, 0xcc, 0xf9, 0xff, 0xff,
  0x01, 0x00, 0x00, 0x00, 0x0c, 0x00, 0x00, 0x00, 0x03, 0x00, 0x00, 0x00,
  0x0b, 0x00, 0x00, 0x00, 0x01, 0x00, 0x00, 0x00, 0x04, 0x00, 0x00, 0x00,
  0x96, 0xff, 0xff, 0xff, 0x10, 0x00, 0x00, 0x00, 0x00, 0x00, 0x00, 0x08,
  0x10, 0x00, 0x00, 0x00, 0x14, 0x00, 0x00, 0x00, 0x86, 0xff, 0xff, 0xff,
  0x00, 0x00, 0x00, 0x01, 0x01, 0x00, 0x00, 0x00, 0x0b, 0x00, 0x00, 0x00,
  0x03, 0x00, 0x00, 0x00, 0x0a, 0x00, 0x00, 0x00, 0x02, 0x00, 0x00, 0x00,
  0x05, 0x00, 0x00, 0x00, 0xca, 0xff, 0xff, 0xff, 0x10, 0x00, 0x00, 0x00,
  0x00, 0x00, 0x00, 0x08, 0x10, 0x00, 0x00, 0x00, 0x14, 0x00, 0x00, 0x00,
  0xba, 0xff, 0xff, 0xff, 0x00, 0x00, 0x00, 0x01, 0x01, 0x00, 0x00, 0x00,
  0x0a, 0x00, 0x00, 0x00, 0x03, 0x00, 0x00, 0x00, 0x09, 0x00, 0x00, 0x00,
  0x03, 0x00, 0x00, 0x00, 0x06, 0x00, 0x00, 0x00, 0x00, 0x00, 0x0e, 0x00,
  0x16, 0x00, 0x00, 0x00, 0x10, 0x00, 0x0c, 0x00, 0x0b, 0x00, 0x04, 0x00,
  0x0e, 0x00, 0x00, 0x00, 0x18, 0x00, 0x00, 0x00, 0x00, 0x00, 0x00, 0x08,
  0x18, 0x00, 0x00, 0x00, 0x1c, 0x00, 0x00, 0x00, 0x00, 0x00, 0x06, 0x00,
  0x08, 0x00, 0x07, 0x00, 0x06, 0x00, 0x00, 0x00, 0x00, 0x00, 0x00, 0x01,
  0x01, 0x00, 0x00, 0x00, 0x09, 0x00, 0x00, 0x00, 0x03, 0x00, 0x00, 0x00,
  0x00, 0x00, 0x00, 0x00, 0x08, 0x00, 0x00, 0x00, 0x07, 0x00, 0x00, 0x00,
  0x01, 0x00, 0x00, 0x00, 0x0d, 0x00, 0x00, 0x00, 0x01, 0x00, 0x00, 0x00,
  0x00, 0x00, 0x00, 0x00, 0x0e, 0x00, 0x00, 0x00, 0x28, 0x05, 0x00, 0x00,
  0xd0, 0x04, 0x00, 0x00, 0x78, 0x04, 0x00, 0x00, 0x38, 0x04, 0x00, 0x00,
  0xfc, 0x03, 0x00, 0x00, 0xc0, 0x03, 0x00, 0x00, 0x84, 0x03, 0x00, 0x00,
  0x24, 0x03, 0x00, 0x00, 0xd0, 0x02, 0x00, 0x00, 0x2c, 0x02, 0x00, 0x00,
  0x88, 0x01, 0x00, 0x00, 0xe4, 0x00, 0x00, 0x00, 0x60, 0x00, 0x00, 0x00,
  0x04, 0x00, 0x00, 0x00, 0x26, 0xfb, 0xff, 0xff, 0x00, 0x00, 0x00, 0x01,
  0x14, 0x00, 0x00, 0x00, 0x1c, 0x00, 0x00, 0x00, 0x1c, 0x00, 0x00, 0x00,
  0x0e, 0x00, 0x00, 0x00, 0x34, 0x00, 0x00, 0x00, 0x02, 0x00, 0x00, 0x00,
  0xff, 0xff, 0xff, 0xff, 0x1a, 0x00, 0x00, 0x00, 0x10, 0xfb, 0xff, 0xff,
  0x1b, 0x00, 0x00, 0x00, 0x53, 0x74, 0x61, 0x74, 0x65, 0x66, 0x75, 0x6c,
  0x50, 0x61, 0x72, 0x74, 0x69, 0x74, 0x69, 0x6f, 0x6e, 0x65, 0x64, 0x43,
  0x61, 0x6c, 0x6c, 0x5f, 0x31, 0x3a, 0x30, 0x00, 0x02, 0x00, 0x00, 0x00,
  0x01, 0x00, 0x00, 0x00, 0x1a, 0x00, 0x00, 0x00, 0x7e, 0xfb, 0xff, 0xff,
  0x00, 0x00, 0x00, 0x01, 0x14, 0x00, 0x00, 0x00, 0x1c, 0x00, 0x00, 0x00,
  0x1c, 0x00, 0x00, 0x00, 0x0d, 0x00, 0x00, 0x00, 0x5c, 0x00, 0x00, 0x00,
  0x02, 0x00, 0x00, 0x00, 0xff, 0xff, 0xff, 0xff, 0x1a, 0x00, 0x00, 0x00,
  0x68, 0xfb, 0xff, 0xff, 0x42, 0x00, 0x00, 0x00, 0x73, 0x65, 0x71, 0x75,
  0x65, 0x6e, 0x74, 0x69, 0x61, 0x6c, 0x5f, 0x34, 0x5f, 0x31, 0x2f, 0x64,
  0x65, 0x6e, 0x73, 0x65, 0x5f, 0x31, 0x39, 0x5f, 0x31, 0x2f, 0x4d, 0x61,
  0x74, 0x4d, 0x75, 0x6c, 0x3b, 0x73, 0x65, 0x71, 0x75, 0x65, 0x6e, 0x74,
  0x69, 0x61, 0x6c, 0x5f, 0x34, 0x5f, 0x31, 0x2f, 0x64, 0x65, 0x6e, 0x73,
  0x65, 0x5f, 0x31, 0x39, 0x5f, 0x31, 0x2f, 0x42, 0x69, 0x61, 0x73, 0x41,
  0x64, 0x64, 0x00, 0x00, 0x02, 0x00, 0x00, 0x00, 0x01, 0x00, 0x00, 0x00,
  0x1a, 0x00, 0x00, 0x00, 0xfe, 0xfb, 0xff, 0xff, 0x00, 0x00, 0x00, 0x01,
  0x14, 0x00, 0x00, 0x00, 0x1c, 0x00, 0x00, 0x00, 0x1c, 0x00, 0x00, 0x00,
  0x0c, 0x00, 0x00, 0x00, 0x7c, 0x00, 0x00, 0x00, 0x02, 0x00, 0x00, 0x00,
  0xff, 0xff, 0xff, 0xff, 0x20, 0x00, 0x00, 0x00, 0xe8, 0xfb, 0xff, 0xff,
  0x61, 0x00, 0x00, 0x00, 0x73, 0x65, 0x71, 0x75, 0x65, 0x6e, 0x74, 0x69,
  0x61, 0x6c, 0x5f, 0x34, 0x5f, 0x31, 0x2f, 0x64, 0x65, 0x6e, 0x73, 0x65,
  0x5f, 0x31, 0x38, 0x5f, 0x31, 0x2f, 0x4d, 0x61, 0x74, 0x4d, 0x75, 0x6c,
  0x3b, 0x73, 0x65, 0x71, 0x75, 0x65, 0x6e, 0x74, 0x69, 0x61, 0x6c, 0x5f,
  0x34, 0x5f, 0x31, 0x2f, 0x64, 0x65, 0x6e, 0x73, 0x65, 0x5f, 0x31, 0x38,
  0x5f, 0x31, 0x2f, 0x52, 0x65, 0x6c, 0x75, 0x3b, 0x73, 0x65, 0x71, 0x75,
  0x65, 0x6e, 0x74, 0x69, 0x61, 0x6c, 0x5f, 0x34, 0x5f, 0x31, 0x2f, 0x64,
  0x65, 0x6e, 0x73, 0x65, 0x5f, 0x31, 0x38, 0x5f, 0x31, 0x2f, 0x42, 0x69,
  0x61, 0x73, 0x41, 0x64, 0x64, 0x00, 0x00, 0x00, 0x02, 0x00, 0x00, 0x00,
  0x01, 0x00, 0x00, 0x00, 0x20, 0x00, 0x00, 0x00, 0x9e, 0xfc, 0xff, 0xff,
  0x00, 0x00, 0x00, 0x01, 0x14, 0x00, 0x00, 0x00, 0x1c, 0x00, 0x00, 0x00,
  0x1c, 0x00, 0x00, 0x00, 0x0b, 0x00, 0x00, 0x00, 0x7c, 0x00, 0x00, 0x00,
  0x02, 0x00, 0x00, 0x00, 0xff, 0xff, 0xff, 0xff, 0x10, 0x00, 0x00, 0x00,
  0x88, 0xfc, 0xff, 0xff, 0x61, 0x00, 0x00, 0x00, 0x73, 0x65, 0x71, 0x75,
  0x65, 0x6e, 0x74, 0x69, 0x61, 0x6c, 0x5f, 0x34, 0x5f, 0x31, 0x2f, 0x64,
  0x65, 0x6e, 0x73, 0x65, 0x5f, 0x31, 0x37, 0x5f, 0x31, 0x2f, 0x4d, 0x61,
  0x74, 0x4d, 0x75, 0x6c, 0x3b, 0x73, 0x65, 0x71, 0x75, 0x65, 0x6e, 0x74,
  0x69, 0x61, 0x6c, 0x5f, 0x34, 0x5f, 0x31, 0x2f, 0x64, 0x65, 0x6e, 0x73,
  0x65, 0x5f, 0x31, 0x37, 0x5f, 0x31, 0x2f, 0x52, 0x65, 0x6c, 0x75, 0x3b,
  0x73, 0x65, 0x71, 0x75, 0x65, 0x6e, 0x74, 0x69, 0x61, 0x6c, 0x5f, 0x34,
  0x5f, 0x31, 0x2f, 0x64, 0x65, 0x6e, 0x73, 0x65, 0x5f, 0x31, 0x37, 0x5f,
  0x31, 0x2f, 0x42, 0x69, 0x61, 0x73, 0x41, 0x64, 0x64, 0x00, 0x00, 0x00,
  0x02, 0x00, 0x00, 0x00, 0x01, 0x00, 0x00, 0x00, 0x10, 0x00, 0x00, 0x00,
  0x3e, 0xfd, 0xff, 0xff, 0x00, 0x00, 0x00, 0x01, 0x14, 0x00, 0x00, 0x00,
  0x1c, 0x00, 0x00, 0x00, 0x1c, 0x00, 0x00, 0x00, 0x0a, 0x00, 0x00, 0x00,
  0x7c, 0x00, 0x00, 0x00, 0x02, 0x00, 0x00, 0x00, 0xff, 0xff, 0xff, 0xff,
  0x08, 0x00, 0x00, 0x00, 0x28, 0xfd, 0xff, 0xff, 0x61, 0x00, 0x00, 0x00,
  0x73, 0x65, 0x71, 0x75, 0x65, 0x6e, 0x74, 0x69, 0x61, 0x6c, 0x5f, 0x34,
  0x5f, 0x31, 0x2f, 0x64, 0x65, 0x6e, 0x73, 0x65, 0x5f, 0x31, 0x36, 0x5f,
  0x31, 0x2f, 0x4d, 0x61, 0x74, 0x4d, 0x75, 0x6c, 0x3b, 0x73, 0x65, 0x71,
  0x75, 0x65, 0x6e, 0x74, 0x69, 0x61, 0x6c, 0x5f, 0x34, 0x5f, 0x31, 0x2f,
  0x64, 0x65, 0x6e, 0x73, 0x65, 0x5f, 0x31, 0x36, 0x5f, 0x31, 0x2f, 0x52,
  0x65, 0x6c, 0x75, 0x3b, 0x73, 0x65, 0x71, 0x75, 0x65, 0x6e, 0x74, 0x69,
  0x61, 0x6c, 0x5f, 0x34, 0x5f, 0x31, 0x2f, 0x64, 0x65, 0x6e, 0x73, 0x65,
  0x5f, 0x31, 0x36, 0x5f, 0x31, 0x2f, 0x42, 0x69, 0x61, 0x73, 0x41, 0x64,
  0x64, 0x00, 0x00, 0x00, 0x02, 0x00, 0x00, 0x00, 0x01, 0x00, 0x00, 0x00,
  0x08, 0x00, 0x00, 0x00, 0x32, 0xfe, 0xff, 0xff, 0x00, 0x00, 0x00, 0x01,
  0x10, 0x00, 0x00, 0x00, 0x10, 0x00, 0x00, 0x00, 0x09, 0x00, 0x00, 0x00,
  0x30, 0x00, 0x00, 0x00, 0xb8, 0xfd, 0xff, 0xff, 0x20, 0x00, 0x00, 0x00,
  0x73, 0x65, 0x71, 0x75, 0x65, 0x6e, 0x74, 0x69, 0x61, 0x6c, 0x5f, 0x34,
  0x5f, 0x31, 0x2f, 0x64, 0x65, 0x6e, 0x73, 0x65, 0x5f, 0x31, 0x36, 0x5f,
  0x31, 0x2f, 0x4d, 0x61, 0x74, 0x4d, 0x75, 0x6c, 0x00, 0x00, 0x00, 0x00,
  0x02, 0x00, 0x00, 0x00, 0x08, 0x00, 0x00, 0x00, 0x05, 0x00, 0x00, 0x00,
  0x82, 0xfe, 0xff, 0xff, 0x00, 0x00, 0x00, 0x01, 0x10, 0x00, 0x00, 0x00,
  0x10, 0x00, 0x00, 0x00, 0x08, 0x00, 0x00, 0x00, 0x40, 0x00, 0x00, 0x00,
  0x08, 0xfe, 0xff, 0xff, 0x30, 0x00, 0x00, 0x00, 0x73, 0x65, 0x71, 0x75,
  0x65, 0x6e, 0x74, 0x69, 0x61, 0x6c, 0x5f, 0x34, 0x5f, 0x31, 0x2f, 0x64,
  0x65, 0x6e, 0x73, 0x65, 0x5f, 0x31, 0x36, 0x5f, 0x31, 0x2f, 0x42, 0x69,
  0x61, 0x73, 0x41, 0x64, 0x64, 0x2f, 0x52, 0x65, 0x61, 0x64, 0x56, 0x61,
  0x72, 0x69, 0x61, 0x62, 0x6c, 0x65, 0x4f, 0x70, 0x00, 0x00, 0x00, 0x00,
  0x01, 0x00, 0x00, 0x00, 0x08, 0x00, 0x00, 0x00, 0xde, 0xfe, 0xff, 0xff,
  0x00, 0x00, 0x00, 0x01, 0x10, 0x00, 0x00, 0x00, 0x10, 0x00, 0x00, 0x00,
  0x07, 0x00, 0x00, 0x00, 0x1c, 0x00, 0x00, 0x00, 0x64, 0xfe, 0xff, 0xff,
  0x0f, 0x00, 0x00, 0x00, 0x61, 0x72, 0x69, 0x74, 0x68, 0x2e, 0x63, 0x6f,
  0x6e, 0x73, 0x74, 0x61, 0x6e, 0x74, 0x35, 0x00, 0x01, 0x00, 0x00, 0x00,
  0x10, 0x00, 0x00, 0x00, 0x16, 0xff, 0xff, 0xff, 0x00, 0x00, 0x00, 0x01,
  0x10, 0x00, 0x00, 0x00, 0x10, 0x00, 0x00, 0x00, 0x06, 0x00, 0x00, 0x00,
  0x1c, 0x00, 0x00, 0x00, 0x9c, 0xfe, 0xff, 0xff, 0x0f, 0x00, 0x00, 0x00,
  0x61, 0x72, 0x69, 0x74, 0x68, 0x2e, 0x63, 0x6f, 0x6e, 0x73, 0x74, 0x61,
  0x6e, 0x74, 0x34, 0x00, 0x01, 0x00, 0x00, 0x00, 0x20, 0x00, 0x00, 0x00,
  0x4e, 0xff, 0xff, 0xff, 0x00, 0x00, 0x00, 0x01, 0x10, 0x00, 0x00, 0x00,
  0x10, 0x00, 0x00, 0x00, 0x05, 0x00, 0x00, 0x00, 0x1c, 0x00, 0x00, 0x00,
  0xd4, 0xfe, 0xff, 0xff, 0x0f, 0x00, 0x00, 0x00, 0x61, 0x72, 0x69, 0x74,
  0x68, 0x2e, 0x63, 0x6f, 0x6e, 0x73, 0x74, 0x61, 0x6e, 0x74, 0x33, 0x00,
  0x01, 0x00, 0x00, 0x00, 0x1a, 0x00, 0x00, 0x00, 0x86, 0xff, 0xff, 0xff,
  0x00, 0x00, 0x00, 0x01, 0x10, 0x00, 0x00, 0x00, 0x10, 0x00, 0x00, 0x00,
  0x04, 0x00, 0x00, 0x00, 0x1c, 0x00, 0x00, 0x00, 0x0c, 0xff, 0xff, 0xff,
  0x0f, 0x00, 0x00, 0x00, 0x61, 0x72, 0x69, 0x74, 0x68, 0x2e, 0x63, 0x6f,
  0x6e, 0x73, 0x74, 0x61, 0x6e, 0x74, 0x32, 0x00, 0x02, 0x00, 0x00, 0x00,
  0x10, 0x00, 0x00, 0x00, 0x08, 0x00, 0x00, 0x00, 0xc2, 0xff, 0xff, 0xff,
  0x00, 0x00, 0x00, 0x01, 0x10, 0x00, 0x00, 0x00, 0x10, 0x00, 0x00, 0x00,
  0x03, 0x00, 0x00, 0x00, 0x1c, 0x00, 0x00, 0x00, 0x48, 0xff, 0xff, 0xff,
  0x0f, 0x00, 0x00, 0x00, 0x61, 0x72, 0x69, 0x74, 0x68, 0x2e, 0x63, 0x6f,
  0x6e, 0x73, 0x74, 0x61, 0x6e, 0x74, 0x31, 0x00, 0x02, 0x00, 0x00, 0x00,
  0x20, 0x00, 0x00, 0x00, 0x10, 0x00, 0x00, 0x00, 0x00, 0x00, 0x16, 0x00,
  0x18, 0x00, 0x14, 0x00, 0x00, 0x00, 0x10, 0x00, 0x0c, 0x00, 0x08, 0x00,
  0x00, 0x00, 0x00, 0x00, 0x00, 0x00, 0x07, 0x00, 0x16, 0x00, 0x00, 0x00,
  0x00, 0x00, 0x00, 0x01, 0x10, 0x00, 0x00, 0x00, 0x10, 0x00, 0x00, 0x00,
  0x02, 0x00, 0x00, 0x00, 0x1c, 0x00, 0x00, 0x00, 0x9c, 0xff, 0xff, 0xff,
  0x0e, 0x00, 0x00, 0x00, 0x61, 0x72, 0x69, 0x74, 0x68, 0x2e, 0x63, 0x6f,
  0x6e, 0x73, 0x74, 0x61, 0x6e, 0x74, 0x00, 0x00, 0x02, 0x00, 0x00, 0x00,
  0x1a, 0x00, 0x00, 0x00, 0x20, 0x00, 0x00, 0x00, 0x00, 0x00, 0x16, 0x00,
  0x1c, 0x00, 0x18, 0x00, 0x00, 0x00, 0x14, 0x00, 0x10, 0x00, 0x0c, 0x00,
  0x00, 0x00, 0x00, 0x00, 0x08, 0x00, 0x07, 0x00, 0x16, 0x00, 0x00, 0x00,
  0x00, 0x00, 0x00, 0x01, 0x14, 0x00, 0x00, 0x00, 0x20, 0x00, 0x00, 0x00,
  0x20, 0x00, 0x00, 0x00, 0x01, 0x00, 0x00, 0x00, 0x40, 0x00, 0x00, 0x00,
  0x02, 0x00, 0x00, 0x00, 0xff, 0xff, 0xff, 0xff, 0x05, 0x00, 0x00, 0x00,
  0x04, 0x00, 0x04, 0x00, 0x04, 0x00, 0x00, 0x00, 0x21, 0x00, 0x00, 0x00,
  0x73, 0x65, 0x72, 0x76, 0x69, 0x6e, 0x67, 0x5f, 0x64, 0x65, 0x66, 0x61,
  0x75, 0x6c, 0x74, 0x5f, 0x6b, 0x65, 0x72, 0x61, 0x73, 0x5f, 0x74, 0x65,
  0x6e, 0x73, 0x6f, 0x72, 0x5f, 0x36, 0x36, 0x3a, 0x30, 0x00, 0x00, 0x00,
  0x02, 0x00, 0x00, 0x00, 0x01, 0x00, 0x00, 0x00, 0x05, 0x00, 0x00, 0x00,
  0x02, 0x00, 0x00, 0x00, 0x20, 0x00, 0x00, 0x00, 0x04, 0x00, 0x00, 0x00,
  0xf4, 0xff, 0xff, 0xff, 0x19, 0x00, 0x00, 0x00, 0x00, 0x00, 0x00, 0x19,
  0x0c, 0x00, 0x0c, 0x00, 0x0b, 0x00, 0x00, 0x00, 0x00, 0x00, 0x04, 0x00,
  0x0c, 0x00, 0x00, 0x00, 0x09, 0x00, 0x00, 0x00, 0x00, 0x00, 0x00, 0x09
};
unsigned int model_len = 8880;
