unsigned char model[] = {
  0x1c, 0x00, 0x00, 0x00, 0x54, 0x46, 0x4c, 0x33, 0x14, 0x00, 0x20, 0x00,
  0x1c, 0x00, 0x18, 0x00, 0x14, 0x00, 0x10, 0x00, 0x0c, 0x00, 0x00, 0x00,
  0x08, 0x00, 0x04, 0x00, 0x14, 0x00, 0x00, 0x00, 0x1c, 0x00, 0x00, 0x00,
  0x9c, 0x00, 0x00, 0x00, 0xf4, 0x00, 0x00, 0x00, 0x7c, 0x1c, 0x00, 0x00,
  0x8c, 0x1c, 0x00, 0x00, 0xb8, 0x23, 0x00, 0x00, 0x03, 0x00, 0x00, 0x00,
  0x01, 0x00, 0x00, 0x00, 0x10, 0x00, 0x00, 0x00, 0x00, 0x00, 0x0a, 0x00,
  0x10, 0x00, 0x0c, 0x00, 0x08, 0x00, 0x04, 0x00, 0x0a, 0x00, 0x00, 0x00,
  0x0c, 0x00, 0x00, 0x00, 0x1c, 0x00, 0x00, 0x00, 0x3c, 0x00, 0x00, 0x00,
  0x0f, 0x00, 0x00, 0x00, 0x73, 0x65, 0x72, 0x76, 0x69, 0x6e, 0x67, 0x5f,
  0x64, 0x65, 0x66, 0x61, 0x75, 0x6c, 0x74, 0x00, 0x01, 0x00, 0x00, 0x00,
  0x04, 0x00, 0x00, 0x00, 0x8c, 0xff, 0xff, 0xff, 0x0d, 0x00, 0x00, 0x00,
  0x04, 0x00, 0x00, 0x00, 0x08, 0x00, 0x00, 0x00, 0x6f, 0x75, 0x74, 0x70,
  0x75, 0x74, 0x5f, 0x30, 0x00, 0x00, 0x00, 0x00, 0x01, 0x00, 0x00, 0x00,
  0x04, 0x00, 0x00, 0x00, 0x66, 0xe3, 0xff, 0xff, 0x04, 0x00, 0x00, 0x00,
  0x10, 0x00, 0x00, 0x00, 0x6b, 0x65, 0x72, 0x61, 0x73, 0x5f, 0x74, 0x65,
  0x6e, 0x73, 0x6f, 0x72, 0x5f, 0x34, 0x36, 0x38, 0x00, 0x00, 0x00, 0x00,
  0x02, 0x00, 0x00, 0x00, 0x34, 0x00, 0x00, 0x00, 0x04, 0x00, 0x00, 0x00,
  0xdc, 0xff, 0xff, 0xff, 0x10, 0x00, 0x00, 0x00, 0x04, 0x00, 0x00, 0x00,
  0x13, 0x00, 0x00, 0x00, 0x43, 0x4f, 0x4e, 0x56, 0x45, 0x52, 0x53, 0x49,
  0x4f, 0x4e, 0x5f, 0x4d, 0x45, 0x54, 0x41, 0x44, 0x41, 0x54, 0x41, 0x00,
  0x08, 0x00, 0x0c, 0x00, 0x08, 0x00, 0x04, 0x00, 0x08, 0x00, 0x00, 0x00,
  0x0f, 0x00, 0x00, 0x00, 0x04, 0x00, 0x00, 0x00, 0x13, 0x00, 0x00, 0x00,
  0x6d, 0x69, 0x6e, 0x5f, 0x72, 0x75, 0x6e, 0x74, 0x69, 0x6d, 0x65, 0x5f,
  0x76, 0x65, 0x72, 0x73, 0x69, 0x6f, 0x6e, 0x00, 0x11, 0x00, 0x00, 0x00,
  0x84, 0x1b, 0x00, 0x00, 0x7c, 0x1b, 0x00, 0x00, 0x9c, 0x0d, 0x00, 0x00,
  0x0c, 0x05, 0x00, 0x00, 0xfc, 0x02, 0x00, 0x00, 0x84, 0x02, 0x00, 0x00,
  0xec, 0x01, 0x00, 0x00, 0x9c, 0x01, 0x00, 0x00, 0x6c, 0x01, 0x00, 0x00,
  0xbc, 0x00, 0x00, 0x00, 0xb4, 0x00, 0x00, 0x00, 0xac, 0x00, 0x00, 0x00,
  0xa4, 0x00, 0x00, 0x00, 0x9c, 0x00, 0x00, 0x00, 0x94, 0x00, 0x00, 0x00,
  0x74, 0x00, 0x00, 0x00, 0x04, 0x00, 0x00, 0x00, 0x2a, 0xe4, 0xff, 0xff,
  0x04, 0x00, 0x00, 0x00, 0x60, 0x00, 0x00, 0x00, 0x0c, 0x00, 0x00, 0x00,
  0x08, 0x00, 0x0e, 0x00, 0x08, 0x00, 0x04, 0x00, 0x08, 0x00, 0x00, 0x00,
  0x10, 0x00, 0x00, 0x00, 0x28, 0x00, 0x00, 0x00, 0x00, 0x00, 0x06, 0x00,
  0x08, 0x00, 0x04, 0x00, 0x06, 0x00, 0x00, 0x00, 0x04, 0x00, 0x00, 0x00,
  0x01, 0x00, 0x00, 0x00, 0xea, 0x03, 0x00, 0x00, 0x0c, 0x00, 0x18, 0x00,
  0x14, 0x00, 0x10, 0x00, 0x0c, 0x00, 0x04, 0x00, 0x0c, 0x00, 0x00, 0x00,
  0x41, 0x28, 0x52, 0x09, 0x2b, 0xf2, 0x2b, 0xd0, 0x02, 0x00, 0x00, 0x00,
  0x02, 0x00, 0x00, 0x00, 0x04, 0x00, 0x00, 0x00, 0x06, 0x00, 0x00, 0x00,
  0x32, 0x2e, 0x31, 0x38, 0x2e, 0x30, 0x00, 0x00, 0x96, 0xe4, 0xff, 0xff,
  0x04, 0x00, 0x00, 0x00, 0x10, 0x00, 0x00, 0x00, 0x31, 0x2e, 0x35, 0x2e,
  0x30, 0x00, 0x00, 0x00, 0x00, 0x00, 0x00, 0x00, 0x00, 0x00, 0x00, 0x00,
  0x3c, 0xde, 0xff, 0xff, 0x40, 0xde, 0xff, 0xff, 0x44, 0xde, 0xff, 0xff,
  0x48, 0xde, 0xff, 0xff, 0x4c, 0xde, 0xff, 0xff, 0xc6, 0xe4, 0xff, 0xff,
  0x04, 0x00, 0x00, 0x00, 0xa0, 0x00, 0x00, 0x00, 0xab, 0xab, 0x56, 0x3f,
  0x7a, 0x4d, 0x3b, 0x3d, 0xc0, 0x7d, 0x04, 0xc0, 0xaa, 0x71, 0xad, 0x3d,
  0xb8, 0x80, 0xb9, 0x3d, 0x97, 0x4b, 0xfa, 0xbe, 0x08, 0x06, 0x9b, 0x3f,
  0x0d, 0xda, 0x1c, 0xbf, 0x11, 0x16, 0xe6, 0x3f, 0x08, 0xf8, 0x0a, 0xbf,
  0x0c, 0x7e, 0xe1, 0x3f, 0x74, 0x74, 0x46, 0x3f, 0xa3, 0xb7, 0xef, 0x3e,
  0xce, 0x4c, 0x5f, 0xbe, 0x60, 0xe5, 0x10, 0x3d, 0x83, 0x35, 0xb7, 0x3e,
  0xdd, 0xe5, 0x13, 0xbc, 0x07, 0x58, 0x85, 0xbb, 0x84, 0xfd, 0xe4, 0x3f,
  0x7c, 0xb6, 0x29, 0x3e, 0x7a, 0x8d, 0xc0, 0xbe, 0x99, 0x65, 0x2d, 0xbf,
  0x7b, 0x43, 0x0a, 0xbf, 0xc0, 0xda, 0x23, 0xbc, 0x04, 0x86, 0x1a, 0x3e,
  0x37, 0x4c, 0x54, 0x3f, 0xb1, 0x85, 0x08, 0xc0, 0xf1, 0x87, 0xa1, 0xbe,
  0x6b, 0x15, 0xae, 0x3f, 0x08, 0x29, 0x68, 0x3e, 0x60, 0xfb, 0xca, 0xbd,
  0x5c, 0x6c, 0x30, 0xbe, 0x7c, 0xf4, 0x80, 0xbe, 0x9e, 0x18, 0xd2, 0xbe,
  0x50, 0x6e, 0xb7, 0x3d, 0xcd, 0x3d, 0x1d, 0x3f, 0xae, 0x5b, 0x58, 0x3b,
  0x30, 0x48, 0xe7, 0xbf, 0xae, 0xf3, 0x0d, 0xc0, 0xf4, 0x6f, 0x2b, 0x3e,
  0x72, 0xe5, 0xff, 0xff, 0x04, 0x00, 0x00, 0x00, 0x20, 0x00, 0x00, 0x00,
  0xef, 0x76, 0x1f, 0x3e, 0xf7, 0xae, 0xc5, 0x3e, 0x74, 0x56, 0x56, 0x3e,
  0xbb, 0x4f, 0x0e, 0xbc, 0x00, 0x00, 0x00, 0x00, 0x35, 0x3c, 0x07, 0x3f,
  0x00, 0x00, 0x00, 0x00, 0x07, 0xbe, 0xdc, 0x3e, 0x9e, 0xe5, 0xff, 0xff,
  0x04, 0x00, 0x00, 0x00, 0x40, 0x00, 0x00, 0x00, 0x3f, 0x2b, 0xc6, 0x3e,
  0xcf, 0x70, 0x98, 0xbe, 0xfb, 0x0e, 0x9a, 0x3e, 0x00, 0x00, 0x00, 0x00,
  0x86, 0xb9, 0xc1, 0xbe, 0x75, 0x04, 0xb4, 0x3e, 0xce, 0x72, 0x31, 0x3f,
  0xa2, 0x6d, 0x5d, 0xbe, 0x00, 0x00, 0x00, 0x00, 0x74, 0xdc, 0xc0, 0xbc,
  0x85, 0x73, 0x0c, 0x3f, 0x65, 0x9a, 0x77, 0x3f, 0xbc, 0x8c, 0x14, 0x3f,
  0x22, 0xb8, 0xdb, 0x3e, 0x9a, 0x27, 0x4a, 0x3f, 0xdb, 0x1c, 0x86, 0x3e,
  0xea, 0xe5, 0xff, 0xff, 0x04, 0x00, 0x00, 0x00, 0x88, 0x00, 0x00, 0x00,
  0x4b, 0x4e, 0x8b, 0xbd, 0xc7, 0x92, 0x62, 0x3e, 0x70, 0x7d, 0xc5, 0x3e,
  0xbe, 0x01, 0xb2, 0x3e, 0xf1, 0xaf, 0xfe, 0xbd, 0xfc, 0xea, 0x54, 0xbe,
  0x70, 0x7b, 0x17, 0x3f, 0x00, 0x00, 0x00, 0x00, 0xa3, 0xbe, 0xc3, 0x3d,
  0x83, 0x05, 0xe3, 0xbd, 0x00, 0x00, 0x00, 0x00, 0x46, 0x4b, 0x4d, 0xbe,
  0xe4, 0xee, 0x4c, 0x3e, 0x18, 0x04, 0x2c, 0x3d, 0x42, 0xce, 0x59, 0x3e,
  0x5c, 0xfd, 0x94, 0x3e, 0x61, 0x25, 0x0b, 0xbf, 0xa8, 0x73, 0xf6, 0x3d,
  0x00, 0x00, 0x00, 0x00, 0xff, 0x71, 0x40, 0xbe, 0x00, 0x00, 0x00, 0x00,
  0xde, 0x21, 0x8d, 0x3e, 0x4c, 0xec, 0x3c, 0xbc, 0x61, 0x63, 0xd3, 0xbd,
  0xb8, 0x07, 0x5a, 0xbe, 0x9b, 0xbf, 0x16, 0x3f, 0x3b, 0xb7, 0x38, 0xbe,
  0x00, 0x00, 0x00, 0x00, 0x0e, 0xa0, 0x4d, 0x3f, 0x8f, 0x7b, 0x83, 0xbe,
  0x48, 0x76, 0xd1, 0x3c, 0xb0, 0xe1, 0x98, 0x3e, 0xc1, 0x1f, 0x49, 0xbe,
  0xd2, 0x96, 0x10, 0x3f, 0x7e, 0xe6, 0xff, 0xff, 0x04, 0x00, 0x00, 0x00,
  0x68, 0x00, 0x00, 0x00, 0xbe, 0xd8, 0x7f, 0xbd, 0x8c, 0x7f, 0x83, 0xbe,
  0x25, 0x48, 0x95, 0xbe, 0xb2, 0x4f, 0x12, 0xbe, 0x5e, 0xfe, 0x55, 0x3e,
  0xa3, 0x6f, 0x22, 0x3f, 0x0f, 0x70, 0xa0, 0xbd, 0x90, 0x04, 0xc7, 0x3e,
  0xab, 0xcf, 0xc8, 0x3e, 0x47, 0x21, 0xb2, 0xbe, 0x39, 0x21, 0x29, 0xbe,
  0x81, 0xe8, 0x0b, 0xbe, 0xf3, 0x10, 0x2e, 0xbe, 0x6e, 0x3b, 0x10, 0x3d,
  0x53, 0x88, 0x1d, 0x3e, 0x78, 0x31, 0x00, 0x3d, 0x93, 0x0c, 0xe2, 0xbe,
  0xf4, 0xa3, 0x04, 0x3e, 0x4b, 0x29, 0x0f, 0x3f, 0xef, 0xba, 0xb3, 0xbb,
  0xdc, 0x9b, 0x06, 0x3f, 0x90, 0x6d, 0x12, 0xbe, 0xa4, 0x51, 0x42, 0xbe,
  0xf3, 0x53, 0x97, 0xbe, 0x80, 0x4d, 0xcf, 0xbe, 0xb8, 0x61, 0x99, 0xbe,
  0xf2, 0xe6, 0xff, 0xff, 0x04, 0x00, 0x00, 0x00, 0x00, 0x02, 0x00, 0x00,
  0x2a, 0x4b, 0xf0, 0x3c, 0x11, 0x31, 0xa1, 0x3f, 0x2d, 0xc0, 0x1e, 0xbf,
  0x2c, 0x2c, 0xa8, 0x3f, 0xa0, 0xba, 0x6d, 0x3d, 0x73, 0xc9, 0x3c, 0x3f,
  0x30, 0xd3, 0x20, 0x3e, 0x87, 0x23, 0x66, 0xbe, 0x08, 0x0e, 0x1e, 0x3f,
  0x1d, 0x27, 0xa7, 0x3f, 0xa9, 0x6c, 0xbc, 0x3e, 0x2c, 0x50, 0xcc, 0x3f,
  0x88, 0xe8, 0x0a, 0x3e, 0x78, 0x31, 0x52, 0x3e, 0xa4, 0xd5, 0xd3, 0xbe,
  0xab, 0x36, 0x53, 0x3f, 0xf1, 0xa4, 0xa4, 0x3f, 0xc8, 0x2d, 0xb2, 0x3f,
  0x7b, 0x88, 0x3c, 0x3f, 0x79, 0xf7, 0xe0, 0xbe, 0x78, 0xa0, 0xe7, 0xbe,
  0xd2, 0x5e, 0xe3, 0xbf, 0x98, 0x6a, 0xd4, 0xbe, 0x7a, 0x25, 0x19, 0x3f,
  0xf8, 0x40, 0x52, 0x3e, 0xa0, 0x39, 0x03, 0xbe, 0xdc, 0xf1, 0x8b, 0xbe,
  0x90, 0xb3, 0xfd, 0xbe, 0xd8, 0xd0, 0xda, 0xbe, 0x90, 0x9d, 0xac, 0x3d,
  0x98, 0xe6, 0x7a, 0xbe, 0x80, 0x8d, 0x11, 0x3d, 0x25, 0x36, 0x3b, 0x3f,
  0x4c, 0xdb, 0x86, 0xbe, 0x95, 0x50, 0x50, 0x3f, 0xec, 0x9d, 0x93, 0x3f,
  0x00, 0x04, 0x1f, 0xbc, 0xf7, 0x55, 0xae, 0x3f, 0xc4, 0xaa, 0x95, 0x3e,
  0x36, 0x1f, 0x1b, 0xbe, 0x43, 0xde, 0x03, 0xbe, 0x67, 0x93, 0xbb, 0x3e,
  0x0b, 0xd1, 0x09, 0xbf, 0xd9, 0xf2, 0xab, 0x3f, 0xc0, 0x7e, 0xc4, 0x3d,
  0x72, 0xbb, 0xc4, 0x3f, 0x54, 0xbe, 0xa7, 0x3e, 0x2c, 0xd7, 0xa9, 0xbf,
  0x91, 0xad, 0x85, 0x3f, 0xd9, 0xeb, 0xc9, 0xbe, 0x4e, 0x2f, 0x06, 0x3e,
  0xc7, 0xa6, 0x8c, 0xbf, 0x9c, 0x0c, 0xae, 0xbe, 0x0e, 0x10, 0x3b, 0x3f,
  0xf0, 0x79, 0x05, 0x3e, 0x8e, 0xc8, 0xe6, 0x3f, 0x0d, 0xe4, 0xaa, 0x3f,
  0x5e, 0x32, 0x79, 0xbe, 0x1e, 0x76, 0xea, 0x3e, 0x11, 0x3f, 0x72, 0x3f,
  0xf0, 0xc5, 0x89, 0x3d, 0x26, 0x8c, 0x38, 0x3f, 0xc0, 0x67, 0x84, 0x3e,
  0x3f, 0x60, 0xbd, 0x3f, 0x04, 0x2c, 0xb9, 0xbe, 0xcc, 0x8d, 0xb6, 0xbe,
  0x90, 0xcb, 0x5d, 0xbe, 0x70, 0x82, 0x39, 0x3e, 0xe0, 0x42, 0x04, 0x3e,
  0xc0, 0x14, 0x28, 0xbd, 0x60, 0x27, 0x67, 0x3e, 0x80, 0x26, 0xc8, 0xbc,
  0xc1, 0x24, 0x1e, 0x3e, 0x37, 0xa8, 0x69, 0xbd, 0x6b, 0x20, 0x77, 0xbe,
  0xc2, 0xd7, 0xe9, 0xbe, 0x98, 0xe6, 0xe5, 0xbe, 0xe3, 0x8a, 0xa7, 0x3e,
  0x84, 0xda, 0xe8, 0x3e, 0x82, 0xa1, 0xa8, 0xbe, 0x01, 0xc2, 0x8b, 0xbf,
  0x99, 0x63, 0x39, 0xbf, 0xfd, 0xf8, 0x7a, 0x3f, 0xcb, 0x55, 0x0a, 0xbe,
  0x00, 0x35, 0x7c, 0xbe, 0x95, 0xc2, 0x76, 0x3e, 0x88, 0x53, 0x1b, 0xbe,
  0xbc, 0xcc, 0xa0, 0xbe, 0x23, 0xe3, 0x20, 0xbf, 0x31, 0xdd, 0x8a, 0x3f,
  0x31, 0x54, 0xa0, 0xbe, 0xa1, 0x30, 0x8c, 0xbf, 0xd4, 0xe5, 0xa0, 0x3e,
  0x85, 0x35, 0x07, 0x3e, 0x18, 0x4f, 0x55, 0x3e, 0x7e, 0xab, 0xf5, 0xbd,
  0xe6, 0xfa, 0x62, 0xbf, 0x32, 0x44, 0x43, 0xbf, 0x09, 0x80, 0xad, 0x3f,
  0x2e, 0x3e, 0xf1, 0x3e, 0x00, 0x20, 0x08, 0xbb, 0x3d, 0xb0, 0x92, 0xbe,
  0x3c, 0x7a, 0xe4, 0xbe, 0x8c, 0x24, 0x9e, 0xbf, 0x6d, 0x73, 0x74, 0x3d,
  0xfa, 0xb6, 0x1c, 0xbf, 0xa8, 0x4e, 0x83, 0x3f, 0x7a, 0x08, 0x0a, 0xbf,
  0x60, 0xbf, 0xf2, 0x3e, 0x95, 0x89, 0x5f, 0x3f, 0x50, 0x74, 0xab, 0xbe,
  0x95, 0xbf, 0x05, 0xbf, 0x71, 0x1d, 0x07, 0xc0, 0x13, 0xbf, 0x8a, 0x3f,
  0x82, 0xed, 0x06, 0xbf, 0x82, 0xfa, 0xbd, 0xbe, 0x80, 0xa0, 0xce, 0xbc,
  0xd7, 0xb6, 0x13, 0xbf, 0xc8, 0x30, 0xb4, 0xbe, 0x63, 0x94, 0x32, 0xbf,
  0xbc, 0xd4, 0x7b, 0xbf, 0x70, 0x53, 0x43, 0x3f, 0x44, 0x49, 0xe1, 0x3e,
  0x35, 0xbe, 0xb6, 0x3f, 0xc0, 0x97, 0x65, 0xbd, 0x17, 0x93, 0x1c, 0x3f,
  0xa0, 0xc6, 0xb3, 0xbe, 0x6f, 0x8e, 0xb7, 0xbf, 0xfe, 0xe8, 0xff, 0xff,
  0x04, 0x00, 0x00, 0x00, 0x80, 0x08, 0x00, 0x00, 0xf1, 0x0d, 0x34, 0xbd,
  0x77, 0x42, 0x04, 0x3e, 0xc2, 0xc8, 0x18, 0xbe, 0xcc, 0x63, 0xd4, 0x3d,
  0xc4, 0x15, 0xf4, 0x3e, 0xd1, 0x39, 0xaa, 0x3e, 0xf0, 0xd7, 0x7e, 0x3f,
  0xd2, 0x52, 0x3e, 0x3f, 0xe6, 0xf3, 0x8c, 0x3e, 0x62, 0x03, 0xeb, 0xbd,
  0xb3, 0x0d, 0xbf, 0xbe, 0x42, 0x64, 0xf2, 0xbe, 0x1a, 0xb3, 0xb7, 0xbe,
  0x7b, 0xe8, 0xda, 0x3e, 0x29, 0x1a, 0x92, 0xbf, 0xcb, 0x09, 0xc3, 0xbe,
  0xfe, 0xac, 0x29, 0x3e, 0xf7, 0x70, 0xc0, 0xbd, 0xe5, 0x4c, 0xa1, 0x3f,
  0x00, 0x1e, 0x72, 0xba, 0x3d, 0x27, 0x03, 0x3e, 0x31, 0x34, 0x82, 0xbf,
  0x8b, 0xef, 0x07, 0xbf, 0x59, 0x48, 0xe9, 0x3c, 0x50, 0xc4, 0x1c, 0x3d,
  0x35, 0xc8, 0xf1, 0xbc, 0xb2, 0xd3, 0x9b, 0xbc, 0x2e, 0xf1, 0xfb, 0x3e,
  0x07, 0xd8, 0x50, 0x3f, 0x95, 0x24, 0xa1, 0xbc, 0xe1, 0x7b, 0x82, 0x3e,
  0xf8, 0x4b, 0xc8, 0x3e, 0xfd, 0x21, 0x3a, 0x3f, 0x68, 0xcb, 0xef, 0x3d,
  0x0f, 0xde, 0x03, 0x3f, 0x01, 0x17, 0x5d, 0xbe, 0xd2, 0xe5, 0xd6, 0xbd,
  0xe5, 0xc7, 0x1f, 0x3f, 0xf4, 0xa2, 0x8c, 0xbe, 0x12, 0x7c, 0xe6, 0xbd,
  0x44, 0xa3, 0xab, 0x3d, 0x15, 0x50, 0xf8, 0xbd, 0x61, 0x0c, 0xeb, 0xbe,
  0x50, 0x8a, 0x8c, 0x3f, 0x9e, 0x71, 0x72, 0xbf, 0x8e, 0x5f, 0x0a, 0xbf,
  0x07, 0xcb, 0x95, 0x3f, 0xdc, 0x91, 0x0f, 0x3f, 0xd0, 0x77, 0xb7, 0x3e,
  0x40, 0x2b, 0xe6, 0x3d, 0xac, 0xa7, 0x79, 0x3f, 0x17, 0x00, 0x15, 0xbe,
  0x88, 0x2f, 0x40, 0xbf, 0xe3, 0x15, 0xf9, 0xbd, 0x36, 0x9e, 0xa0, 0x3e,
  0x59, 0xd8, 0x80, 0xbe, 0x43, 0x62, 0x46, 0xbe, 0xe0, 0x6b, 0x8a, 0x3e,
  0x6e, 0xcc, 0x93, 0xbe, 0x9f, 0x14, 0xa6, 0x3f, 0x55, 0x62, 0x02, 0xbf,
  0x01, 0x1e, 0x2d, 0xbe, 0x3d, 0x0a, 0x9f, 0x3f, 0xc6, 0x11, 0xa9, 0xbe,
  0x08, 0x84, 0x80, 0x3e, 0x3a, 0x58, 0x83, 0x3e, 0xa4, 0x44, 0x02, 0xbf,
  0x60, 0x4d, 0xc5, 0xbd, 0x18, 0x21, 0x13, 0x3f, 0xc1, 0x39, 0x53, 0x3f,
  0x5a, 0x21, 0x2e, 0xbf, 0x59, 0x12, 0x43, 0xbe, 0x88, 0xc2, 0x22, 0x3e,
  0xd7, 0x7d, 0x4b, 0xbe, 0x03, 0x1b, 0x35, 0x3f, 0xbf, 0x6a, 0x32, 0xbf,
  0x5a, 0xd6, 0x1e, 0x3f, 0xce, 0x6a, 0x84, 0x3e, 0xa2, 0x56, 0x16, 0xbf,
  0xb6, 0x12, 0x38, 0x3f, 0xde, 0x02, 0x90, 0x3e, 0x40, 0x45, 0x16, 0x3f,
  0x91, 0xc7, 0xca, 0x3f, 0x8a, 0x64, 0x8c, 0x3e, 0xeb, 0xb1, 0x48, 0xbe,
  0x22, 0xcf, 0x5b, 0xbe, 0xfc, 0x84, 0x00, 0xbf, 0x43, 0x66, 0x58, 0x3e,
  0x00, 0x51, 0x8b, 0x3d, 0x69, 0x10, 0x4d, 0x3e, 0x54, 0xab, 0x13, 0xbe,
  0xf8, 0x35, 0x41, 0xbf, 0x78, 0xee, 0xa4, 0x3c, 0x29, 0xaf, 0x85, 0xbe,
  0xcf, 0x0e, 0x68, 0xbf, 0xf4, 0x64, 0xed, 0x3e, 0xbe, 0xa5, 0x5f, 0xbe,
  0x71, 0x6b, 0x4e, 0xbf, 0x48, 0x87, 0xa0, 0xbe, 0x40, 0x22, 0x7c, 0x3c,
  0x8a, 0xff, 0xe9, 0x3d, 0xab, 0x24, 0x7c, 0x3e, 0x23, 0xf0, 0xa6, 0xbc,
  0x96, 0x1d, 0x20, 0xbf, 0x80, 0xa4, 0xa4, 0x3e, 0x6c, 0xa3, 0x17, 0xbd,
  0xde, 0x96, 0xac, 0x3f, 0x3c, 0x2d, 0x0a, 0x3f, 0x73, 0x37, 0xba, 0x3f,
  0x0d, 0x0f, 0x5f, 0x3f, 0xf8, 0x50, 0x8b, 0x3e, 0xea, 0xc6, 0x24, 0x3f,
  0x08, 0xa6, 0x6c, 0xbd, 0x62, 0x42, 0x9d, 0xbe, 0x20, 0x7b, 0x25, 0xbe,
  0x94, 0x10, 0x63, 0xbe, 0x50, 0xd7, 0xa6, 0xbe, 0xa4, 0xf9, 0xa4, 0x3e,
  0x54, 0xba, 0x35, 0x3e, 0xf8, 0xc6, 0x40, 0xbd, 0x84, 0x35, 0xe3, 0xbd,
  0x38, 0x0e, 0x09, 0x3e, 0x44, 0x4e, 0x9f, 0x3d, 0x46, 0xe5, 0xab, 0xbe,
  0x45, 0xfd, 0x8e, 0xbe, 0x4a, 0xae, 0x86, 0x3e, 0xcc, 0xa0, 0xba, 0x3d,
  0x12, 0xbb, 0x13, 0xbe, 0x17, 0x80, 0xcc, 0x3f, 0x80, 0xe0, 0x31, 0x3f,
  0xd2, 0x51, 0x3f, 0xbf, 0x4e, 0xcd, 0x7a, 0xbe, 0x49, 0x0f, 0x08, 0x3f,
  0xbc, 0xb3, 0xd9, 0x3f, 0xba, 0x00, 0x94, 0xbe, 0xe3, 0x24, 0xcc, 0xbc,
  0x48, 0xc6, 0x64, 0x3e, 0xfb, 0x07, 0x89, 0x3c, 0x91, 0x51, 0x23, 0xbf,
  0x27, 0xb8, 0x30, 0x3f, 0x2f, 0x06, 0x9e, 0xbe, 0xad, 0x0c, 0xd1, 0xbe,
  0x0e, 0x3e, 0x5d, 0x3d, 0x48, 0x4a, 0x5e, 0x3f, 0x02, 0x9c, 0x02, 0xbf,
  0x74, 0x27, 0x52, 0xbe, 0x3b, 0xa1, 0x8c, 0xbe, 0xf0, 0xe4, 0xb0, 0xbd,
  0x6a, 0x13, 0xb8, 0x3e, 0xf6, 0x4c, 0x2f, 0x3f, 0xb7, 0x1e, 0x36, 0x3f,
  0x6f, 0x75, 0x32, 0x3f, 0x82, 0xc2, 0x84, 0xbe, 0x41, 0xec, 0x53, 0x3e,
  0xa0, 0xa0, 0xda, 0x3e, 0xaa, 0x9f, 0x45, 0xbf, 0x5f, 0x83, 0xcd, 0xbe,
  0x14, 0xb8, 0x17, 0x3f, 0x93, 0x4e, 0xd6, 0xbf, 0x69, 0x63, 0x52, 0xbf,
  0x73, 0x4f, 0x19, 0xbe, 0xe0, 0xf5, 0x2a, 0x3e, 0x20, 0x86, 0x3c, 0xbd,
  0xb0, 0x48, 0x23, 0x3e, 0xa4, 0x03, 0x86, 0xbe, 0xca, 0xfb, 0x11, 0xbe,
  0x21, 0x9d, 0x9a, 0xbe, 0x80, 0xf5, 0x67, 0x3b, 0xfc, 0x06, 0xbf, 0xbd,
  0x34, 0xc1, 0x11, 0xbe, 0xd8, 0xe4, 0x43, 0x3e, 0x90, 0xc1, 0x7c, 0xbe,
  0xdc, 0x66, 0x6b, 0x3e, 0x80, 0xfd, 0x1f, 0xbe, 0x96, 0x39, 0x9e, 0xbe,
  0x78, 0x90, 0x6a, 0xbe, 0xaa, 0x25, 0x20, 0xbe, 0x06, 0x7e, 0xe1, 0x3e,
  0x3e, 0xbb, 0xda, 0xbb, 0xa8, 0x54, 0x45, 0x3d, 0x83, 0xcd, 0x2a, 0x3f,
  0x3f, 0xff, 0x97, 0x3e, 0xe5, 0xb5, 0x4c, 0x3f, 0x00, 0x38, 0x4e, 0x3f,
  0x06, 0x96, 0xab, 0x3e, 0x5d, 0xfd, 0xcd, 0xbd, 0xb4, 0xc5, 0x11, 0xbd,
  0xdb, 0xe4, 0x02, 0xbf, 0x8f, 0xdc, 0x6d, 0xbe, 0x72, 0x0d, 0x55, 0xbd,
  0xd9, 0xbe, 0x96, 0xbf, 0x9e, 0x5f, 0x94, 0xbe, 0x7f, 0x3e, 0x80, 0xbe,
  0xa2, 0x42, 0xc6, 0xbe, 0xec, 0xa7, 0x23, 0x3f, 0x60, 0x43, 0x96, 0xbe,
  0x35, 0x2f, 0x59, 0xbf, 0xc9, 0x72, 0x17, 0xbf, 0x5a, 0x61, 0x69, 0xbf,
  0x98, 0x3c, 0xcc, 0xbf, 0x80, 0xe8, 0x4e, 0xbc, 0xc0, 0x4a, 0x8a, 0x3c,
  0x6d, 0xa6, 0x56, 0x3e, 0xdc, 0xc3, 0x54, 0x3f, 0x6c, 0xe5, 0xfb, 0x3d,
  0xec, 0x05, 0x28, 0x3e, 0xb5, 0x8a, 0x8e, 0x3f, 0xb5, 0x96, 0x3b, 0xbd,
  0xeb, 0xcf, 0x89, 0x3e, 0xa7, 0xf8, 0x39, 0x3e, 0xc1, 0xf0, 0xd6, 0x3e,
  0xa4, 0x68, 0xd9, 0x3d, 0xaf, 0x3b, 0x5c, 0xbf, 0xcd, 0xa1, 0xa6, 0xbf,
  0x32, 0xcd, 0x55, 0x3e, 0xd1, 0xa4, 0x8b, 0x3e, 0xe4, 0x6e, 0x51, 0x3e,
  0x31, 0x28, 0xa1, 0x3d, 0x30, 0xca, 0xa0, 0xbe, 0xf9, 0x26, 0x79, 0x3e,
  0xca, 0xf1, 0x12, 0xbf, 0xd1, 0xab, 0xd8, 0xbe, 0x46, 0xd0, 0x04, 0xbe,
  0xa2, 0x6c, 0xb7, 0xbe, 0x38, 0x81, 0x81, 0xbe, 0xfd, 0x7a, 0xc7, 0xbe,
  0xf6, 0xb7, 0xbb, 0xbd, 0x00, 0x4c, 0x4e, 0x3c, 0x81, 0x9a, 0x04, 0x3f,
  0xed, 0xc8, 0x0b, 0x3d, 0x08, 0x29, 0x5b, 0xbe, 0x6f, 0xb8, 0x79, 0x3e,
  0x8c, 0x30, 0xa2, 0xbe, 0x5a, 0x24, 0x74, 0xbd, 0x66, 0x06, 0x94, 0x3f,
  0x4a, 0x62, 0xee, 0xbe, 0xed, 0x80, 0x8b, 0x3f, 0x7f, 0x55, 0x36, 0x3f,
  0x7f, 0xdf, 0x80, 0xbe, 0xad, 0x5f, 0x2a, 0x3f, 0xfc, 0xcc, 0x6f, 0x3f,
  0xe2, 0xa5, 0xc9, 0x3e, 0xb5, 0xea, 0x1f, 0xbe, 0x78, 0x68, 0x8c, 0xbd,
  0x57, 0xed, 0x82, 0xbe, 0x8f, 0x3d, 0x85, 0x3f, 0x36, 0x11, 0xd7, 0x3e,
  0x89, 0xfa, 0xc2, 0x3e, 0xf0, 0x35, 0x5b, 0xbd, 0xa8, 0x41, 0x82, 0x3e,
  0x88, 0x26, 0x27, 0xbf, 0x69, 0x2b, 0x0e, 0x3f, 0xd8, 0x81, 0xa0, 0xbf,
  0x95, 0x69, 0x89, 0xbe, 0xad, 0xe3, 0x0d, 0xbf, 0x44, 0xe1, 0x92, 0xbe,
  0x61, 0x8a, 0xf7, 0xbe, 0x2c, 0x39, 0x01, 0x3f, 0xc4, 0xdb, 0xc3, 0x3e,
  0x00, 0x48, 0xcf, 0xb9, 0x8a, 0xab, 0x00, 0x3f, 0xc7, 0xde, 0x1d, 0xbd,
  0x6a, 0xb4, 0x37, 0xbe, 0x06, 0x5f, 0x55, 0x3d, 0x28, 0x24, 0x7a, 0x3d,
  0xf6, 0xf2, 0xf1, 0x3d, 0xa0, 0x70, 0x9f, 0x3e, 0xa9, 0x69, 0x34, 0xbf,
  0x38, 0xb3, 0x60, 0x3f, 0xfb, 0x84, 0xbc, 0x3e, 0x9c, 0x55, 0xca, 0xbe,
  0xb9, 0x6c, 0x44, 0x3e, 0x87, 0x89, 0x32, 0x3d, 0xe8, 0x3a, 0x40, 0x3f,
  0x25, 0x18, 0xb9, 0x3f, 0xbc, 0x92, 0x67, 0x3e, 0x62, 0x99, 0x10, 0xbe,
  0xcf, 0xcc, 0x76, 0xbf, 0x79, 0x52, 0x06, 0x3f, 0x91, 0x6a, 0x35, 0xbd,
  0x20, 0xe6, 0xd8, 0x3d, 0x6e, 0x50, 0xbb, 0x3d, 0x0c, 0xdc, 0x1a, 0xbf,
  0xc6, 0x75, 0x3a, 0x3f, 0x25, 0x27, 0x63, 0xbf, 0x5e, 0x9d, 0xfe, 0x3b,
  0x57, 0x9c, 0x2a, 0x3f, 0xef, 0xac, 0x04, 0xbf, 0xb8, 0x7e, 0xe8, 0x3d,
  0x20, 0x59, 0x82, 0xbd, 0x3c, 0x1b, 0xb5, 0xbd, 0xa4, 0x67, 0x90, 0x3d,
  0x38, 0xb9, 0x52, 0xbe, 0xf8, 0xc0, 0x44, 0xbe, 0xca, 0x3e, 0xa8, 0xbe,
  0x38, 0x54, 0xd2, 0x3d, 0xd2, 0x22, 0xb1, 0x3e, 0x8c, 0x30, 0x6d, 0xbe,
  0x38, 0xe9, 0xc4, 0xbd, 0xa2, 0x8c, 0xa1, 0xbe, 0x1e, 0xa3, 0x95, 0x3e,
  0xa4, 0x33, 0xa8, 0x3d, 0x01, 0x8d, 0x9c, 0xbe, 0x0f, 0x92, 0x9c, 0xbe,
  0x2d, 0x7c, 0x8e, 0xbe, 0xd3, 0xa3, 0xc1, 0x3e, 0xb0, 0x48, 0x99, 0x3f,
  0xb7, 0x69, 0x08, 0xbe, 0xf4, 0x94, 0xe8, 0x3e, 0x13, 0x34, 0x00, 0xbf,
  0xf8, 0x21, 0xd2, 0x3e, 0xf9, 0x0d, 0x45, 0x3f, 0x75, 0x88, 0x79, 0xbe,
  0x0d, 0x0f, 0x8a, 0x3e, 0xb8, 0xe7, 0xae, 0xbd, 0x66, 0x4d, 0x4e, 0xbf,
  0x36, 0x58, 0x42, 0x3e, 0x8e, 0x37, 0x6f, 0x3d, 0x98, 0xe0, 0x8b, 0xbf,
  0x87, 0x74, 0x3a, 0xbf, 0x9c, 0xe5, 0xaa, 0x3d, 0x30, 0xda, 0x25, 0x3d,
  0xa6, 0xf7, 0x65, 0xbe, 0xfc, 0x8d, 0x26, 0x3e, 0xa8, 0x59, 0xca, 0xbd,
  0x98, 0x59, 0xcf, 0x3d, 0xa4, 0xad, 0xa1, 0xbd, 0x03, 0xdf, 0x96, 0xbe,
  0x6a, 0xe8, 0xae, 0xbe, 0xd8, 0xe6, 0x92, 0xbd, 0x1c, 0x2a, 0xf9, 0x3d,
  0x00, 0x00, 0x74, 0x36, 0x34, 0xe6, 0x64, 0xbe, 0x28, 0x65, 0x33, 0x3e,
  0xe0, 0x2d, 0x2a, 0xbc, 0x8c, 0x77, 0x72, 0xbe, 0x75, 0xdc, 0x53, 0xbe,
  0xbd, 0x19, 0x25, 0xbe, 0xaf, 0x97, 0x56, 0xbf, 0x08, 0x72, 0xbb, 0x3d,
  0x1d, 0x42, 0xcd, 0x3e, 0xfb, 0x71, 0x0c, 0x3f, 0xac, 0xd6, 0x33, 0xbe,
  0xd6, 0x33, 0x8c, 0x3e, 0x2c, 0xe3, 0x91, 0x3e, 0x1a, 0x89, 0x06, 0x3d,
  0x02, 0x06, 0x51, 0x3f, 0xcc, 0xa4, 0xcc, 0xbd, 0xb3, 0xbd, 0x86, 0x3f,
  0xac, 0x90, 0x44, 0x3f, 0xce, 0x73, 0xf3, 0x3e, 0x07, 0x2d, 0x2d, 0x3f,
  0x35, 0x2f, 0x98, 0xbe, 0xd8, 0x44, 0x9f, 0xbe, 0xd8, 0x9c, 0x94, 0x3e,
  0xe8, 0xbe, 0x60, 0xbd, 0x0d, 0xd4, 0xab, 0x3d, 0xb0, 0x52, 0xa5, 0xbc,
  0x56, 0x3a, 0xb5, 0xbe, 0xbb, 0x0f, 0x9c, 0x3e, 0x2f, 0x3a, 0x47, 0xbe,
  0xb6, 0xd9, 0x11, 0xbe, 0xc8, 0x2d, 0x91, 0xbe, 0x89, 0x5a, 0x4d, 0xbe,
  0xf7, 0xfb, 0x22, 0xbe, 0xa9, 0x65, 0x17, 0x3d, 0x5c, 0xa7, 0x44, 0x3e,
  0x39, 0xf6, 0x9a, 0xbe, 0x6c, 0xe0, 0xa3, 0x3e, 0x9d, 0xc8, 0xa4, 0x3e,
  0xef, 0x47, 0xff, 0xbf, 0xd4, 0xb2, 0x89, 0x3e, 0x3c, 0xcf, 0xe7, 0x3d,
  0x5d, 0xff, 0x20, 0x3f, 0x60, 0x85, 0xde, 0xbe, 0xc0, 0xfa, 0x04, 0xbe,
  0xf1, 0xcd, 0xb0, 0xbe, 0x82, 0x24, 0x04, 0x3e, 0xf5, 0x7a, 0x4b, 0x3e,
  0x15, 0xe3, 0xb9, 0xbf, 0x5b, 0x27, 0xbc, 0x3d, 0x54, 0x39, 0x45, 0xbe,
  0xeb, 0x56, 0xc6, 0xbe, 0x1d, 0x6f, 0x9a, 0x3e, 0x3d, 0x9b, 0xdf, 0x3e,
  0x26, 0x33, 0x1d, 0x3f, 0xa0, 0xdb, 0x5d, 0x3f, 0x40, 0x72, 0x93, 0x3c,
  0x7b, 0xce, 0x01, 0xbd, 0x05, 0x10, 0x1e, 0xbf, 0xfc, 0x72, 0xc5, 0xbe,
  0x7f, 0x12, 0x06, 0x3c, 0xe8, 0xb2, 0x57, 0x3d, 0x3d, 0x22, 0x16, 0x3e,
  0xaa, 0xf8, 0x36, 0x3e, 0x76, 0x10, 0x00, 0xbe, 0xa0, 0x62, 0x14, 0x3d,
  0x0f, 0xec, 0x58, 0xbe, 0x76, 0x50, 0xa4, 0x3f, 0x45, 0x20, 0xb1, 0x3e,
  0xe1, 0xc4, 0x1d, 0xbe, 0x53, 0x78, 0x36, 0xbf, 0x5f, 0xc7, 0xef, 0xbd,
  0x9c, 0x9b, 0x48, 0x3e, 0x19, 0x04, 0xd4, 0xbe, 0xcf, 0x37, 0x19, 0xbe,
  0xb8, 0xd8, 0xeb, 0x3c, 0x10, 0xd3, 0xa1, 0xbe, 0x04, 0x6a, 0x4d, 0x3e,
  0xff, 0x45, 0xdf, 0x3d, 0xfe, 0x36, 0xa2, 0x3f, 0x02, 0xab, 0x31, 0x3f,
  0x15, 0xf4, 0xb1, 0x3f, 0xbb, 0xfe, 0xf8, 0x3e, 0x7f, 0x2c, 0x25, 0xbc,
  0x50, 0xf6, 0xbc, 0x3e, 0x5d, 0xa7, 0x73, 0x3f, 0xe7, 0x4e, 0x06, 0x3f,
  0xdf, 0x27, 0x19, 0xbf, 0x25, 0xef, 0xaf, 0xbe, 0x72, 0x92, 0xbb, 0x3d,
  0xb6, 0x51, 0xb0, 0x3f, 0x18, 0xa4, 0x41, 0xbf, 0x8c, 0xbb, 0x8b, 0x3d,
  0x88, 0x16, 0x4c, 0xbe, 0x72, 0x1d, 0x96, 0xbe, 0x3b, 0x26, 0xa6, 0x3e,
  0xc9, 0x94, 0x63, 0xbe, 0xd8, 0x7f, 0x02, 0x3f, 0xf8, 0x79, 0xcf, 0x3e,
  0x7b, 0xeb, 0xc8, 0x3e, 0x11, 0xa3, 0x99, 0x3f, 0x0b, 0xd1, 0x5e, 0xbe,
  0x96, 0xbe, 0xcb, 0xbd, 0xb6, 0x6e, 0xf3, 0xbd, 0x6e, 0x86, 0x8d, 0x3e,
  0xe9, 0x02, 0x9a, 0xbe, 0xc6, 0xf1, 0x1d, 0xbe, 0xf4, 0x05, 0xc8, 0x3d,
  0xac, 0x51, 0x20, 0x3e, 0x94, 0xa8, 0x41, 0x3e, 0x10, 0x5b, 0x86, 0xbe,
  0x30, 0x39, 0x68, 0xbd, 0x64, 0x7e, 0xb3, 0x3d, 0x40, 0xd2, 0x0e, 0x3c,
  0x0c, 0x2a, 0x67, 0xbe, 0xc6, 0x5d, 0xf4, 0xbd, 0x3c, 0xfd, 0x84, 0xbe,
  0x15, 0x51, 0x9d, 0x3e, 0x89, 0x35, 0xc7, 0x3c, 0x37, 0xf6, 0xc1, 0x3d,
  0x80, 0x13, 0x50, 0x3c, 0x9e, 0xdf, 0xa4, 0x3d, 0x06, 0x27, 0x2b, 0xbe,
  0xda, 0xa2, 0xef, 0x3f, 0x6f, 0xe8, 0x18, 0x3f, 0x3c, 0x41, 0x6f, 0x3e,
  0x9d, 0x2f, 0x37, 0x3e, 0x57, 0xda, 0x9f, 0x3d, 0xb8, 0x4a, 0x09, 0x3f,
  0xed, 0x10, 0x82, 0xbf, 0xe2, 0x62, 0xe4, 0x3e, 0x0e, 0xaf, 0x39, 0xbf,
  0x09, 0x0f, 0xf2, 0xbe, 0xc2, 0xff, 0xa6, 0xbe, 0xcb, 0xab, 0x50, 0x3e,
  0x4a, 0x8c, 0x06, 0xbf, 0x2a, 0x06, 0x85, 0xbe, 0x16, 0x39, 0x1c, 0x3f,
  0x92, 0x07, 0x59, 0xbe, 0x7c, 0x50, 0x98, 0xbe, 0xc9, 0x66, 0x67, 0x3e,
  0xed, 0x8a, 0x81, 0xbe, 0xe0, 0xca, 0x74, 0xbe, 0xb2, 0x8b, 0xc7, 0xbd,
  0xb6, 0x92, 0x10, 0xbf, 0x4d, 0x30, 0xc1, 0x3e, 0xbd, 0xd9, 0x0f, 0x3f,
  0xbe, 0xc8, 0xa2, 0xbf, 0xaf, 0xa6, 0xec, 0x3e, 0x8b, 0x61, 0x10, 0xbf,
  0xcf, 0x5c, 0xb2, 0x3e, 0x6b, 0xaf, 0x94, 0x3f, 0xb0, 0xa3, 0xeb, 0xbc,
  0xbe, 0x6c, 0xae, 0xbe, 0x4a, 0xcc, 0xc4, 0xbf, 0xb8, 0xf5, 0x9b, 0x3f,
  0xe8, 0x20, 0x0c, 0x3f, 0x6c, 0xd4, 0x98, 0x3d, 0xd0, 0xbc, 0x4b, 0x3d,
  0xa9, 0xcd, 0x14, 0x3f, 0xe3, 0x85, 0x50, 0xbd, 0xeb, 0x8e, 0xf1, 0x3d,
  0x3f, 0x2e, 0x2a, 0xbc, 0x56, 0xeb, 0xe4, 0xbe, 0xe5, 0xec, 0x2e, 0xbf,
  0x5f, 0x72, 0x90, 0x3f, 0x10, 0x7c, 0x1f, 0x3f, 0xf1, 0xff, 0x8e, 0x3d,
  0x08, 0x0e, 0x37, 0xbd, 0xcb, 0x61, 0x27, 0x3e, 0x48, 0xca, 0xba, 0x3f,
  0x44, 0x41, 0xc2, 0xba, 0x2f, 0xab, 0xe3, 0x3c, 0x0c, 0x6d, 0xaf, 0xbd,
  0x82, 0xf1, 0xce, 0x3d, 0x02, 0x27, 0x79, 0xbf, 0x74, 0xbb, 0x2d, 0x3f,
  0x46, 0xfe, 0xc9, 0xbe, 0x62, 0xa8, 0x1a, 0xbf, 0x03, 0x8b, 0xe8, 0x3e,
  0xfb, 0x63, 0x1f, 0x3f, 0xf4, 0xdb, 0x18, 0xbe, 0xe9, 0x0f, 0x37, 0x3c,
  0x21, 0x57, 0x65, 0xbf, 0xa8, 0xd8, 0x5f, 0x3e, 0xaa, 0x79, 0x3c, 0x3f,
  0xb5, 0xf0, 0x97, 0xbe, 0x33, 0x36, 0x38, 0x3f, 0x91, 0x64, 0x2d, 0x3f,
  0x90, 0xf1, 0xa6, 0x3e, 0xfb, 0xe8, 0x74, 0xbd, 0x07, 0x93, 0x12, 0x3e,
  0xe2, 0x8a, 0x35, 0xbf, 0x4f, 0xd4, 0xa5, 0xbb, 0xf2, 0x9a, 0xd6, 0x3e,
  0x16, 0xd4, 0x8d, 0xbf, 0x2d, 0x97, 0xa2, 0xbe, 0x7a, 0x48, 0xd0, 0xbe,
  0xb1, 0x5a, 0xaa, 0xbe, 0x2d, 0xaf, 0xd7, 0xbd, 0xae, 0xbd, 0x80, 0xbe,
  0xaa, 0x08, 0x2c, 0x3d, 0x9d, 0x82, 0xf5, 0xbe, 0xbf, 0xb5, 0xbd, 0x3f,
  0xd3, 0x6c, 0x91, 0x3e, 0xd8, 0x28, 0x7a, 0xbd, 0xf8, 0xdb, 0x60, 0x3e,
  0x00, 0xab, 0xf5, 0x3e, 0xe9, 0x98, 0x6f, 0x3e, 0xab, 0x99, 0xd2, 0x3e,
  0x1d, 0x56, 0x28, 0x3f, 0x51, 0x70, 0xc1, 0xbe, 0x4d, 0xc3, 0x3b, 0xbf,
  0x8a, 0xf1, 0xff, 0xff, 0x04, 0x00, 0x00, 0x00, 0xd0, 0x0d, 0x00, 0x00,
  0xdd, 0x07, 0xc5, 0xbf, 0x8c, 0xc6, 0x70, 0x3e, 0xc0, 0xa3, 0x83, 0x3e,
  0x06, 0x62, 0xdd, 0x3e, 0x7b, 0x2b, 0x33, 0xbf, 0x9f, 0xa4, 0xf4, 0x3d,
  0x42, 0x2f, 0x18, 0xc0, 0x97, 0xb6, 0x82, 0x3e, 0xb3, 0x43, 0xe9, 0xbd,
  0xe1, 0x5a, 0x1d, 0xbf, 0xbd, 0x75, 0x8d, 0x3e, 0x22, 0x89, 0xc1, 0xbf,
  0x31, 0x6b, 0x0f, 0xbe, 0x65, 0xf0, 0x3b, 0x3f, 0x56, 0x0c, 0x9e, 0xbf,
  0x78, 0x2e, 0xad, 0x3e, 0xa3, 0x28, 0x8b, 0xbf, 0x16, 0xd2, 0xde, 0x3e,
  0x6d, 0x52, 0x49, 0xbe, 0xd7, 0xec, 0xc6, 0x3e, 0xd8, 0xfa, 0xdd, 0xbd,
  0xf5, 0xbf, 0xb2, 0xbf, 0x0d, 0x7f, 0x13, 0xbe, 0x01, 0xbf, 0x1f, 0xbe,
  0x81, 0xfe, 0x80, 0x3e, 0x47, 0x8d, 0x80, 0xbf, 0x33, 0xbd, 0x22, 0xbf,
  0xac, 0x23, 0x27, 0x3e, 0xd0, 0x78, 0x5a, 0x3e, 0x0b, 0xbd, 0xd4, 0xbe,
  0x52, 0xfd, 0xee, 0x3e, 0x3a, 0x44, 0x80, 0x3e, 0xc6, 0x6c, 0x89, 0xbe,
  0xb7, 0xe3, 0xe8, 0xbe, 0x7e, 0x3d, 0x6e, 0x3e, 0x71, 0xb0, 0x16, 0xbf,
  0xc6, 0x65, 0x87, 0xbf, 0xad, 0xea, 0x96, 0xbf, 0x65, 0x9a, 0x89, 0x3e,
  0x02, 0x3a, 0x63, 0x3d, 0xcc, 0xb7, 0x4d, 0x3c, 0x60, 0xb6, 0x92, 0x3c,
  0x6a, 0x83, 0x4c, 0x3e, 0x7a, 0x6e, 0x27, 0x3e, 0x50, 0x10, 0x25, 0x3e,
  0xee, 0x9d, 0x1b, 0x3e, 0xf2, 0x9a, 0x90, 0xbf, 0x1d, 0x7b, 0x26, 0xbf,
  0x46, 0xb6, 0xa8, 0x3d, 0xc8, 0x0a, 0x77, 0x3d, 0xbd, 0xd4, 0x69, 0xbc,
  0xc5, 0xd6, 0x08, 0xbf, 0xa8, 0x71, 0x85, 0x3d, 0x36, 0x1c, 0x45, 0x3e,
  0x32, 0x3d, 0x56, 0x3e, 0x39, 0x08, 0xec, 0x3d, 0x65, 0x32, 0x37, 0x3e,
  0x87, 0x5c, 0x4d, 0xbf, 0x2a, 0x03, 0xb8, 0xbd, 0xfb, 0x47, 0x36, 0xbe,
  0x76, 0x6e, 0x68, 0x3d, 0x41, 0xeb, 0x0e, 0xbe, 0x00, 0x24, 0x1f, 0x3e,
  0x52, 0x26, 0x75, 0x3e, 0x8a, 0xd6, 0xcd, 0xba, 0x82, 0x78, 0xd7, 0x3d,
  0xc5, 0x81, 0x9c, 0x3e, 0xc5, 0xf3, 0xeb, 0x3d, 0x9b, 0x67, 0x6c, 0x3e,
  0x16, 0x43, 0x1c, 0xbe, 0xd3, 0x03, 0xb8, 0xbf, 0x50, 0x8c, 0x6a, 0xbf,
  0x8c, 0x7d, 0x99, 0x3e, 0xb9, 0x18, 0xc0, 0xbf, 0x38, 0xaa, 0x4d, 0x3e,
  0xf4, 0xf0, 0x69, 0xbe, 0x9d, 0x19, 0x93, 0x3e, 0xd8, 0x5d, 0x82, 0xbd,
  0x05, 0x18, 0x86, 0x3e, 0xbc, 0xc5, 0x75, 0x3d, 0xa0, 0x40, 0x8c, 0xbf,
  0x34, 0xe1, 0x49, 0x3e, 0x22, 0xd7, 0x42, 0x3e, 0xe9, 0xc1, 0xae, 0xbf,
  0x8c, 0x12, 0xf9, 0x3d, 0x17, 0xa7, 0x89, 0xbf, 0x04, 0x3b, 0xd1, 0xbd,
  0xff, 0x7d, 0x8f, 0xbe, 0xb2, 0x62, 0x96, 0xbe, 0x98, 0x7b, 0x84, 0x3e,
  0x7b, 0x3b, 0x5d, 0x3e, 0x64, 0x3f, 0x5f, 0x3f, 0xb9, 0x26, 0xbb, 0xbe,
  0xfc, 0x8f, 0x40, 0x3e, 0x95, 0x33, 0x1c, 0x3e, 0x90, 0xfd, 0xef, 0x3d,
  0x13, 0xcb, 0x0e, 0xbf, 0x6e, 0xd9, 0x83, 0x3e, 0x9b, 0xe1, 0xae, 0xbf,
  0x88, 0x62, 0x8f, 0xbf, 0xf5, 0x58, 0x53, 0x3e, 0x06, 0xc2, 0x18, 0x3c,
  0xcc, 0x84, 0x73, 0x3e, 0xca, 0x0d, 0xbc, 0xbe, 0x01, 0xa8, 0x95, 0xbf,
  0x34, 0x92, 0x53, 0xbf, 0xfd, 0x8e, 0xb0, 0x3d, 0x1b, 0x8f, 0x10, 0xbf,
  0xf5, 0x00, 0x20, 0x3d, 0xbf, 0xf6, 0x8e, 0x3e, 0x40, 0xc9, 0x80, 0xbf,
  0x2d, 0xab, 0x95, 0x3e, 0x12, 0xdc, 0x00, 0xbe, 0x16, 0xe9, 0x37, 0x3e,
  0x9d, 0x1a, 0x87, 0xbf, 0xca, 0xbf, 0x85, 0xbe, 0x46, 0x83, 0x90, 0x3d,
  0x96, 0x5c, 0x4d, 0xbf, 0x67, 0xbf, 0x4e, 0x3d, 0x5f, 0xaa, 0x5a, 0x3d,
  0x70, 0x50, 0xbb, 0xbc, 0x21, 0x3c, 0x93, 0x3e, 0xe2, 0xe3, 0x14, 0xbe,
  0x36, 0xc7, 0x74, 0x3d, 0x26, 0x3f, 0x95, 0xbe, 0xb3, 0x18, 0x0c, 0xbf,
  0x70, 0x84, 0xd3, 0xbe, 0xad, 0xc4, 0x8e, 0x3b, 0x1d, 0x55, 0xcd, 0xbe,
  0x81, 0xd6, 0x2e, 0xbe, 0x3f, 0x02, 0x84, 0x3e, 0x6b, 0xb6, 0x18, 0x3e,
  0x8c, 0xae, 0x69, 0x3e, 0x49, 0xfd, 0xe6, 0xbf, 0x44, 0xb9, 0xa4, 0x3e,
  0x19, 0xbb, 0x91, 0x3e, 0x30, 0x27, 0x88, 0x3e, 0x05, 0x6f, 0x29, 0xbf,
  0x30, 0xe8, 0x87, 0x3d, 0xb2, 0x51, 0x22, 0x3e, 0x79, 0x09, 0x9c, 0xbf,
  0xc6, 0x4c, 0xfb, 0xbf, 0x9e, 0xf2, 0x60, 0xbe, 0x00, 0x32, 0xa9, 0x3d,
  0xf0, 0x7f, 0xa2, 0x3e, 0x84, 0x1d, 0xca, 0x3e, 0xe0, 0x04, 0x06, 0xbc,
  0xd0, 0x59, 0xf2, 0x3d, 0xd8, 0xf9, 0x70, 0xbf, 0x41, 0x1c, 0xe7, 0xbf,
  0xac, 0x8e, 0x16, 0xbf, 0x65, 0x2b, 0x2c, 0x3f, 0x3c, 0xa3, 0x58, 0xbf,
  0xc1, 0x62, 0x0c, 0x3e, 0x34, 0x18, 0x89, 0xbe, 0x15, 0x06, 0xb4, 0xbd,
  0x10, 0x91, 0x5d, 0xbe, 0x5e, 0x71, 0xe2, 0xbe, 0x0f, 0x6a, 0x43, 0xbe,
  0xca, 0xf7, 0x2c, 0x3d, 0xae, 0xf6, 0x7c, 0xbf, 0x2b, 0xb8, 0x9d, 0xbd,
  0x42, 0x65, 0x6d, 0xbe, 0x5a, 0x65, 0x17, 0x3e, 0x0b, 0x27, 0xee, 0x3e,
  0x2c, 0xde, 0x83, 0xbf, 0x64, 0x3d, 0x9a, 0xbd, 0x97, 0x41, 0x08, 0x3e,
  0x5b, 0xc3, 0x6a, 0x3d, 0xb3, 0x34, 0xb2, 0x3e, 0x0f, 0xf1, 0x8d, 0x3c,
  0xd9, 0x2d, 0x44, 0x3e, 0x2d, 0x36, 0xb0, 0xbd, 0xb1, 0x9d, 0xe2, 0xbe,
  0x88, 0x93, 0x79, 0x3e, 0x5e, 0x64, 0xab, 0xbe, 0xc0, 0x46, 0x78, 0x3e,
  0xe6, 0x9d, 0x17, 0x3e, 0xeb, 0xc1, 0x53, 0x3e, 0xd2, 0xc5, 0x3e, 0xbf,
  0x5a, 0xb0, 0x60, 0x3e, 0x82, 0x79, 0xb0, 0xbe, 0xa8, 0x84, 0x0c, 0xc0,
  0xc2, 0xa8, 0x2e, 0xbe, 0x83, 0x38, 0x3c, 0x3e, 0xf7, 0x2d, 0x03, 0x3e,
  0xcc, 0x1e, 0x9f, 0xbd, 0x8e, 0x60, 0x17, 0xc0, 0x18, 0xd9, 0x6e, 0x3d,
  0x38, 0xa4, 0x90, 0xbf, 0xad, 0x12, 0x9c, 0x3e, 0x74, 0xae, 0x55, 0x3e,
  0xb1, 0x33, 0x37, 0x3e, 0x82, 0xb2, 0x9e, 0x3e, 0x96, 0x31, 0x81, 0x3d,
  0xf5, 0x03, 0xb6, 0x3e, 0x0d, 0x58, 0x3b, 0x3e, 0x45, 0xb2, 0x87, 0x3e,
  0x41, 0x0e, 0x7f, 0x3e, 0xa6, 0x43, 0x5b, 0xbe, 0xa2, 0x4f, 0x76, 0xbf,
  0x77, 0x95, 0x03, 0x3e, 0xa7, 0x1f, 0xed, 0xbe, 0x24, 0x9b, 0x33, 0x3d,
  0x8d, 0x7e, 0x0c, 0x3e, 0x63, 0xfc, 0x73, 0x3b, 0x1f, 0x93, 0x7a, 0xbf,
  0xb8, 0x78, 0x8b, 0x3e, 0x72, 0x1a, 0x86, 0xbf, 0xdc, 0xfe, 0xeb, 0x3e,
  0x83, 0xfa, 0xee, 0xbd, 0x92, 0x3d, 0x2f, 0x3e, 0x01, 0x3c, 0x0b, 0xc0,
  0x11, 0x0a, 0x20, 0x3e, 0x71, 0x04, 0x4d, 0xbe, 0x25, 0x8d, 0x01, 0x3e,
  0x45, 0x62, 0x9b, 0xbf, 0x9e, 0x6c, 0x9e, 0xbf, 0x7f, 0x45, 0x00, 0x3d,
  0x1b, 0x2f, 0x78, 0xbf, 0xb5, 0xb8, 0x22, 0x3e, 0xa0, 0x69, 0xce, 0x3e,
  0xc0, 0x83, 0x99, 0xbe, 0xa3, 0x54, 0xaf, 0x3e, 0x36, 0x9a, 0x33, 0x3e,
  0xb1, 0x53, 0xca, 0xbd, 0xae, 0x37, 0x32, 0x3e, 0x4e, 0x57, 0x84, 0x3d,
  0xa5, 0x12, 0x46, 0xbd, 0xe8, 0x51, 0x62, 0xbd, 0x40, 0xcb, 0x6a, 0xbf,
  0x00, 0x30, 0xfd, 0xbb, 0xb0, 0x1d, 0x25, 0x3e, 0xbd, 0x38, 0x9b, 0xbe,
  0x65, 0x5c, 0x81, 0x3e, 0xd0, 0x79, 0xd1, 0xbe, 0xe7, 0x20, 0xcb, 0xbc,
  0xda, 0x1e, 0x6e, 0x3e, 0xbe, 0x7b, 0xaa, 0xbf, 0x9e, 0x2b, 0x32, 0xbd,
  0x2e, 0xc2, 0x61, 0x3e, 0xce, 0xa5, 0x50, 0x3e, 0x92, 0xea, 0xb6, 0xbc,
  0x5b, 0x4d, 0x65, 0xbf, 0x49, 0x9b, 0x54, 0x3e, 0xc8, 0xdd, 0xd8, 0x3d,
  0xb2, 0x04, 0x9a, 0x3e, 0xd2, 0xbf, 0xe3, 0xbe, 0xd4, 0x26, 0xca, 0xbd,
  0xef, 0x33, 0xa5, 0xbf, 0x0d, 0x5b, 0xb2, 0xbf, 0x95, 0x2d, 0x9e, 0xbe,
  0x21, 0x60, 0x16, 0xbd, 0xde, 0xbb, 0xae, 0x3e, 0x5a, 0x57, 0xa7, 0xbf,
  0x14, 0xb3, 0x18, 0xbf, 0xdc, 0x51, 0x83, 0x3d, 0xd2, 0xac, 0x4b, 0xbf,
  0x5c, 0xd6, 0xfd, 0x3d, 0xef, 0xf6, 0x3b, 0x3e, 0xb1, 0xe2, 0xa1, 0xbd,
  0x7b, 0x95, 0x32, 0xbf, 0xfe, 0x39, 0x13, 0x3e, 0x06, 0x64, 0x5c, 0x3e,
  0x90, 0x86, 0x7b, 0x3e, 0x8e, 0x68, 0x74, 0x3e, 0xc0, 0x52, 0xe1, 0x3d,
  0x38, 0x51, 0x2e, 0xbf, 0xde, 0x5a, 0xc9, 0xbf, 0xd7, 0x0b, 0x8b, 0x3e,
  0x79, 0x4f, 0xf6, 0xbe, 0xab, 0x1f, 0xfe, 0xbf, 0x4b, 0x8c, 0xf5, 0x3d,
  0x38, 0x63, 0x42, 0xbd, 0x69, 0x48, 0xfb, 0x3d, 0x79, 0x4e, 0xaa, 0x3e,
  0xaf, 0xb3, 0x7e, 0xbf, 0x4c, 0xc0, 0x96, 0xbe, 0x43, 0xbb, 0x45, 0xbf,
  0x80, 0x52, 0x28, 0x3e, 0xba, 0x41, 0xab, 0x3a, 0x06, 0xa3, 0xaa, 0xbf,
  0x38, 0xa2, 0x8c, 0x3d, 0x1c, 0x86, 0x66, 0xbc, 0xef, 0x39, 0xe3, 0xbf,
  0xc4, 0x15, 0x07, 0x3f, 0x19, 0xa6, 0x69, 0xbf, 0x93, 0xef, 0x16, 0x3f,
  0xe9, 0x4d, 0x6c, 0xbf, 0xc0, 0x10, 0xb5, 0x3e, 0xd6, 0x08, 0x9e, 0xbe,
  0xe2, 0x97, 0x30, 0x3e, 0x35, 0xe8, 0x47, 0xbe, 0x50, 0xef, 0xfb, 0xbf,
  0x56, 0x72, 0x78, 0xbe, 0x63, 0x81, 0x2b, 0x3d, 0x5e, 0x99, 0xdf, 0xbd,
  0xee, 0x5d, 0xbf, 0xbd, 0x3f, 0x2e, 0xb1, 0xbf, 0x20, 0x58, 0x98, 0xbe,
  0xba, 0xfa, 0xfe, 0x3e, 0x4e, 0xa4, 0x74, 0xbf, 0xbb, 0x55, 0x8a, 0x3e,
  0x8b, 0xc7, 0x23, 0x3e, 0x6c, 0x11, 0x02, 0xc0, 0xf6, 0xba, 0xb9, 0x3e,
  0xc1, 0xc6, 0xaa, 0xbf, 0xa8, 0x7d, 0x46, 0x3e, 0x1b, 0x40, 0x82, 0x3e,
  0x1a, 0x74, 0x90, 0x3e, 0x10, 0x00, 0xce, 0xbd, 0x71, 0xcc, 0x89, 0x3e,
  0x7f, 0x0a, 0xbf, 0xbf, 0xbc, 0x47, 0xb5, 0x3d, 0x54, 0xb9, 0x88, 0x3e,
  0x48, 0x2c, 0x04, 0xbf, 0x88, 0xee, 0x10, 0x3e, 0xd7, 0x27, 0xd8, 0xbe,
  0x45, 0x0d, 0xaa, 0xbf, 0xcf, 0x3d, 0x15, 0xbf, 0xbe, 0x9e, 0xcc, 0xbe,
  0x56, 0xd3, 0x4c, 0x3e, 0xf8, 0xad, 0x89, 0x3c, 0xae, 0x7e, 0x3b, 0x3e,
  0xe0, 0x63, 0x6a, 0xbc, 0x04, 0xf3, 0x8e, 0xbf, 0x4d, 0xd9, 0x9d, 0x3e,
  0xc8, 0xed, 0xb9, 0xbe, 0xef, 0x72, 0xcb, 0xbd, 0xab, 0x53, 0x38, 0xbf,
  0x9a, 0x95, 0xc5, 0x3e, 0x14, 0xcb, 0xb4, 0xbf, 0x86, 0x79, 0x93, 0x3e,
  0xec, 0x17, 0xad, 0x3d, 0xa6, 0x58, 0xde, 0xbf, 0x02, 0x2f, 0x95, 0xbf,
  0xf8, 0x82, 0xef, 0xbe, 0x30, 0xb9, 0xa4, 0x3e, 0x2b, 0xe1, 0x6c, 0xbf,
  0x59, 0xb7, 0x7c, 0xbf, 0x07, 0x3e, 0x85, 0x3d, 0x4d, 0x24, 0xa5, 0x3d,
  0xbe, 0x40, 0x8a, 0xbf, 0xe7, 0xaa, 0xa5, 0xbf, 0x2e, 0x6b, 0x85, 0x3e,
  0x6d, 0xf6, 0xb8, 0xbf, 0x4b, 0x53, 0x62, 0x3e, 0x14, 0xa6, 0xa4, 0xbd,
  0x44, 0xeb, 0x82, 0xbe, 0x8b, 0x14, 0xff, 0xbd, 0x14, 0x29, 0x16, 0x3e,
  0x36, 0xd1, 0xe3, 0xbb, 0x60, 0x05, 0xbb, 0xbf, 0xa3, 0xc5, 0x90, 0xbe,
  0x6b, 0xc5, 0x40, 0x3e, 0x52, 0xb9, 0xa3, 0xbf, 0xc4, 0x5a, 0xe5, 0x3d,
  0xe2, 0x94, 0x46, 0xbf, 0xef, 0xef, 0x95, 0xbe, 0xe9, 0x83, 0xc7, 0xbd,
  0x80, 0x1c, 0xe6, 0xbc, 0xc9, 0x45, 0x75, 0x3e, 0x91, 0x30, 0x6c, 0x3e,
  0xe1, 0x17, 0xb9, 0xbf, 0xa9, 0xad, 0x98, 0xbe, 0xf1, 0x7e, 0x53, 0x3e,
  0x1c, 0x85, 0x85, 0x3d, 0xb0, 0x1b, 0xfb, 0xbd, 0xaa, 0x21, 0x18, 0xbe,
  0x89, 0x65, 0x80, 0x3e, 0xb1, 0xe2, 0xef, 0x3b, 0xce, 0xcc, 0x88, 0xbf,
  0x77, 0xda, 0x2d, 0x3e, 0x51, 0xf8, 0xcc, 0x3d, 0x93, 0xa7, 0x21, 0xbf,
  0x73, 0x3c, 0x98, 0x3e, 0xcb, 0xe2, 0x9e, 0x3e, 0xe8, 0xd9, 0xdc, 0x3e,
  0x48, 0x95, 0xd0, 0xbf, 0xc5, 0xa0, 0xcc, 0x3d, 0x76, 0x41, 0xdb, 0xbe,
  0x5a, 0xfb, 0x54, 0x3e, 0xdb, 0x19, 0x44, 0x3e, 0x07, 0xb5, 0xac, 0xbe,
  0xd5, 0x1b, 0x32, 0xbe, 0x66, 0xe9, 0x45, 0xbf, 0xbf, 0x59, 0xf7, 0x3e,
  0xd3, 0x16, 0xc9, 0xbf, 0xa5, 0x46, 0x97, 0xbf, 0xae, 0x64, 0xf8, 0xbd,
  0xc8, 0x26, 0xaa, 0xbf, 0x8c, 0xe2, 0x80, 0x3e, 0x21, 0xcd, 0x95, 0x3e,
  0x5c, 0xb4, 0xc8, 0xbf, 0xdc, 0x8c, 0x48, 0xbe, 0xa5, 0x0a, 0x26, 0xbf,
  0x29, 0x7d, 0x71, 0xbe, 0xa9, 0xad, 0x76, 0xbe, 0xc6, 0xd4, 0xc3, 0x3e,
  0xe1, 0x33, 0x0d, 0xbe, 0x0b, 0x06, 0x96, 0x3e, 0x87, 0xbb, 0x15, 0xbe,
  0xff, 0x36, 0x06, 0xc0, 0xcd, 0xd3, 0x04, 0xbf, 0x2a, 0x61, 0x89, 0xbf,
  0xf8, 0xbe, 0xaa, 0x3e, 0x0a, 0x31, 0xb9, 0xbe, 0x3d, 0x93, 0xca, 0xbf,
  0x68, 0x31, 0x41, 0x3e, 0x51, 0x5d, 0xc6, 0xbd, 0xb2, 0xda, 0xe9, 0xbd,
  0x07, 0x54, 0x95, 0x3e, 0x20, 0x88, 0x45, 0xbf, 0x9b, 0x06, 0x00, 0x3f,
  0x0e, 0xda, 0xe6, 0xbf, 0x72, 0x03, 0xa5, 0xbd, 0xa6, 0x9e, 0xb9, 0xbf,
  0x7f, 0xea, 0xb3, 0x3e, 0xce, 0xd1, 0xe6, 0xbd, 0x5d, 0xc5, 0x20, 0x3e,
  0x07, 0x45, 0x96, 0xbf, 0x47, 0x3a, 0xc3, 0x3e, 0xcc, 0xfe, 0x68, 0xbe,
  0xca, 0x26, 0xb0, 0x3e, 0x42, 0x06, 0xf5, 0x3d, 0x1e, 0x84, 0xeb, 0x3e,
  0x0a, 0xe6, 0x5c, 0x3e, 0x9b, 0x0a, 0xc3, 0x3e, 0x71, 0xc8, 0x8e, 0x3e,
  0x9d, 0x56, 0xa0, 0xbf, 0x0a, 0x55, 0xd9, 0xbd, 0x99, 0xe7, 0x01, 0x3e,
  0x30, 0x3f, 0xb7, 0xbd, 0xa0, 0x37, 0x0a, 0xc0, 0x91, 0x08, 0xb6, 0xbf,
  0x43, 0x73, 0x54, 0xbe, 0x25, 0x9b, 0x69, 0x3e, 0x1d, 0x2e, 0x53, 0xbf,
  0xd0, 0x17, 0x94, 0x3e, 0xeb, 0x75, 0x2e, 0xbe, 0xc7, 0x44, 0x54, 0x3c,
  0x17, 0x13, 0x65, 0x3e, 0x46, 0xd2, 0x89, 0x3e, 0x13, 0x46, 0x02, 0xbf,
  0x87, 0x38, 0x7b, 0xbf, 0x58, 0xa9, 0xa2, 0xbf, 0x40, 0x7f, 0x13, 0xbf,
  0x54, 0x4a, 0x8f, 0x3e, 0x3e, 0x13, 0x1a, 0xbf, 0xb8, 0xd5, 0xc9, 0x3d,
  0x2d, 0x0a, 0xe6, 0xbf, 0x07, 0xa8, 0xb8, 0x3e, 0x6c, 0xde, 0x30, 0x3e,
  0x6e, 0x8d, 0x63, 0x3e, 0xd5, 0xd8, 0x17, 0xbf, 0x2d, 0x5b, 0x7c, 0xbf,
  0x88, 0xe5, 0x77, 0x3c, 0x3e, 0x5d, 0x73, 0x3e, 0x07, 0xd2, 0x07, 0x3d,
  0x54, 0xd9, 0xa9, 0x3e, 0x1c, 0x8a, 0x47, 0xbe, 0x06, 0xd5, 0xae, 0x3e,
  0xd4, 0xac, 0x8b, 0x3d, 0xc4, 0xa1, 0xb4, 0xbd, 0x7a, 0x9c, 0x98, 0x3d,
  0x26, 0x65, 0xb2, 0xbe, 0x4f, 0xe8, 0x34, 0xbd, 0x39, 0x04, 0xda, 0xbf,
  0xf1, 0x1b, 0x30, 0xc0, 0x99, 0x26, 0x92, 0xbe, 0xa7, 0x05, 0x9b, 0x3e,
  0x6a, 0xca, 0x67, 0x3d, 0x31, 0x0e, 0x8e, 0x3e, 0xc7, 0x8f, 0xbb, 0xbf,
  0x02, 0x34, 0xb9, 0x3e, 0x60, 0x4d, 0x9c, 0x3e, 0x5e, 0xb9, 0x32, 0xbf,
  0x9c, 0x35, 0x81, 0x3e, 0x1a, 0x52, 0xd0, 0xbf, 0x38, 0x32, 0x85, 0xbe,
  0x6d, 0xe9, 0x5c, 0x3e, 0xb7, 0x71, 0x91, 0x3e, 0xf8, 0xd9, 0x68, 0x3e,
  0x20, 0x78, 0x82, 0xbc, 0xe3, 0x4b, 0xff, 0xbf, 0xe8, 0x21, 0x8f, 0xbf,
  0xda, 0xb3, 0x9d, 0xbd, 0xe9, 0xd9, 0x01, 0xbf, 0x84, 0x56, 0x9e, 0x3d,
  0x73, 0x0d, 0x7f, 0xbe, 0x28, 0xff, 0x46, 0x3e, 0xeb, 0xd3, 0x0c, 0xbf,
  0x5e, 0x87, 0x59, 0x3e, 0x5b, 0x19, 0x9f, 0xbe, 0xf6, 0x52, 0x40, 0x3e,
  0x66, 0xc4, 0xe4, 0x3d, 0xf0, 0xdd, 0x60, 0xbd, 0xfd, 0x97, 0x35, 0x3e,
  0xe0, 0x32, 0x20, 0xbe, 0x0e, 0x31, 0x7a, 0xbf, 0x76, 0xf4, 0x4c, 0x3e,
  0xd3, 0x5b, 0x7a, 0x3e, 0xe7, 0xa1, 0x3c, 0x3e, 0xc6, 0x1d, 0x59, 0x3e,
  0x2f, 0xf7, 0x24, 0xbf, 0x5e, 0x45, 0xbc, 0x3d, 0x50, 0xee, 0x2b, 0x3e,
  0x84, 0xbb, 0xcc, 0xbf, 0x34, 0xf5, 0xad, 0xbe, 0x6b, 0xb3, 0xd0, 0x3c,
  0x8b, 0x79, 0x85, 0xbf, 0x0d, 0xed, 0x5e, 0x3e, 0x04, 0x20, 0x15, 0x3e,
  0x90, 0x0e, 0x37, 0x3e, 0x24, 0xf0, 0x28, 0x3c, 0xc0, 0xb9, 0x0a, 0x3e,
  0xe9, 0x0e, 0x39, 0x3c, 0xdf, 0x8b, 0x6b, 0xbe, 0xa9, 0x05, 0x3f, 0x3e,
  0x06, 0x47, 0xd8, 0xbe, 0x80, 0x3d, 0xa3, 0x3b, 0x6f, 0x4b, 0x3d, 0xbf,
  0x65, 0xb0, 0x83, 0x3e, 0xe8, 0xc5, 0x79, 0xbf, 0xfb, 0xa4, 0xb7, 0x3d,
  0xe4, 0x9a, 0xb7, 0xbf, 0xf4, 0xbf, 0x69, 0x3d, 0xd1, 0x8a, 0x7b, 0x3d,
  0x4e, 0x98, 0x86, 0xbe, 0x29, 0x4b, 0xe9, 0xbf, 0x40, 0xdc, 0x44, 0x3c,
  0x50, 0x30, 0xaf, 0x3c, 0x74, 0x51, 0xd8, 0xbd, 0x13, 0x9e, 0x3e, 0xbe,
  0x2c, 0xc2, 0x87, 0x3e, 0xb1, 0xb5, 0x01, 0x3d, 0xcf, 0x6e, 0x8d, 0x3e,
  0x68, 0x70, 0x47, 0xbd, 0x2b, 0x48, 0xf6, 0xbf, 0x7b, 0xbb, 0x11, 0xbf,
  0x1e, 0xc5, 0x61, 0xbe, 0xfa, 0x93, 0x3d, 0x3e, 0x42, 0xb2, 0x87, 0xbe,
  0x27, 0x76, 0xef, 0xbf, 0x8e, 0x45, 0x72, 0x3c, 0xa2, 0x23, 0x55, 0x3e,
  0xb6, 0x31, 0x02, 0x3e, 0x4f, 0x94, 0x80, 0xbe, 0x11, 0xd6, 0x95, 0x3d,
  0x3c, 0xc1, 0xbf, 0x3e, 0xa7, 0x83, 0xb8, 0xbf, 0x6e, 0x1c, 0x50, 0x3e,
  0x32, 0x9b, 0x5a, 0x3e, 0x93, 0xb4, 0xa0, 0xbf, 0x10, 0xc1, 0xe8, 0x3c,
  0x29, 0xe9, 0xa4, 0x3d, 0x6e, 0x9a, 0x9a, 0xbf, 0x40, 0xd9, 0xf4, 0xbe,
  0x55, 0x94, 0x5f, 0x3c, 0x2d, 0xca, 0x22, 0x3e, 0x12, 0x2a, 0x9a, 0x3d,
  0x8a, 0xb4, 0x92, 0x3d, 0xd2, 0xfb, 0x79, 0xbe, 0xfb, 0xc0, 0x0a, 0x3e,
  0x30, 0x12, 0x58, 0xbe, 0xf2, 0x89, 0x1e, 0xbe, 0x1c, 0x5f, 0x78, 0xb9,
  0x13, 0xbb, 0x07, 0xbf, 0x5e, 0x39, 0x86, 0x3e, 0xe9, 0xd5, 0xb2, 0xbf,
  0x92, 0xec, 0x43, 0x3e, 0x38, 0xed, 0xd9, 0x3d, 0x51, 0x92, 0x17, 0xbe,
  0x8c, 0xa7, 0x54, 0x3d, 0x21, 0xe7, 0xd3, 0xbe, 0xe9, 0x19, 0x59, 0x3e,
  0xb4, 0x4e, 0x06, 0xbe, 0x19, 0xd6, 0x8a, 0xbf, 0x33, 0x96, 0x67, 0xbf,
  0xa8, 0x4b, 0x8e, 0x3e, 0xbd, 0x25, 0x7e, 0x3e, 0x0b, 0x7d, 0xe7, 0x3e,
  0x99, 0xde, 0xbe, 0xbf, 0x10, 0xf0, 0x98, 0xbc, 0x71, 0x29, 0x0d, 0xbf,
  0xcc, 0xe2, 0x72, 0xbe, 0x7d, 0x26, 0x47, 0xbd, 0xc0, 0x18, 0x0d, 0xbf,
  0xa6, 0x4e, 0x8f, 0xbd, 0x94, 0x16, 0xa0, 0xbf, 0x61, 0xf2, 0xc3, 0x3e,
  0xd1, 0xf2, 0xcc, 0x3e, 0xd7, 0x33, 0xea, 0xbf, 0x93, 0xd2, 0x26, 0xbe,
  0xc5, 0x02, 0xb8, 0xbf, 0xda, 0x02, 0xce, 0x3e, 0xc0, 0xd4, 0x82, 0x3d,
  0x59, 0x15, 0xa0, 0xbf, 0x9c, 0x92, 0xd7, 0xbd, 0x66, 0x3e, 0x17, 0xc0,
  0x4e, 0xb9, 0x0b, 0x3e, 0x03, 0xa5, 0xdb, 0xbd, 0xa7, 0x23, 0x9e, 0x3e,
  0x34, 0x93, 0x65, 0x3d, 0xc7, 0xec, 0x54, 0x3d, 0x8e, 0xff, 0x05, 0x3e,
  0xe4, 0x9e, 0x8c, 0xbd, 0x67, 0x8f, 0xa1, 0xbe, 0x83, 0xb0, 0xaa, 0x3e,
  0x50, 0x79, 0x80, 0x3e, 0x68, 0xa4, 0x91, 0xbe, 0xad, 0x4a, 0xcf, 0xbf,
  0xf6, 0x81, 0xb4, 0xbf, 0x43, 0x75, 0x66, 0x3d, 0x3e, 0x13, 0xfe, 0x3d,
  0x22, 0xed, 0xb7, 0x3e, 0x57, 0x04, 0xe4, 0xbf, 0x10, 0xee, 0xb6, 0xbf,
  0x6d, 0xfa, 0x2a, 0x3e, 0x54, 0x6c, 0xa4, 0xbd, 0x7d, 0x30, 0xac, 0x3d,
  0x9f, 0x72, 0xb5, 0xbf, 0xc6, 0x8c, 0x26, 0xbe, 0x72, 0xea, 0xd1, 0xbf,
  0xd2, 0x79, 0x29, 0xbf, 0x6f, 0x21, 0x3f, 0xbf, 0x49, 0x68, 0xb9, 0xbd,
  0x9f, 0x9d, 0x96, 0x3e, 0x2d, 0xd3, 0x92, 0xbf, 0x56, 0xb2, 0x3e, 0x3e,
  0x3f, 0x84, 0x7f, 0xbe, 0x28, 0x6b, 0xe2, 0xbf, 0x7e, 0x37, 0x40, 0xbe,
  0x4b, 0xf3, 0x49, 0xbd, 0xb9, 0xb5, 0x2c, 0xbe, 0xdf, 0x6a, 0x02, 0x3e,
  0x0a, 0xd6, 0x42, 0x3c, 0x3b, 0x84, 0xb9, 0x3e, 0x25, 0xc6, 0xde, 0xbd,
  0x19, 0x19, 0x8d, 0x3e, 0xe8, 0x3a, 0x0a, 0x3f, 0xf7, 0xdd, 0x89, 0xbf,
  0x0f, 0xa5, 0x02, 0x3d, 0x8f, 0x0a, 0x00, 0x3e, 0xd9, 0x7d, 0x5c, 0xbf,
  0x0d, 0x3b, 0x0e, 0x3f, 0x3e, 0x02, 0x9c, 0x3e, 0x0f, 0x35, 0x23, 0xc0,
  0xad, 0x83, 0x56, 0xbf, 0x71, 0x98, 0x0f, 0xbf, 0xee, 0xce, 0x46, 0xbd,
  0x0a, 0x1f, 0x0d, 0xc0, 0x76, 0x57, 0xb9, 0xbe, 0x10, 0xaf, 0x2d, 0x3e,
  0xa7, 0xc9, 0x63, 0x3e, 0x3a, 0x4d, 0xcb, 0x3e, 0xf6, 0x52, 0x20, 0x3e,
  0xc3, 0xec, 0x6a, 0x3e, 0xe4, 0x11, 0xec, 0xbe, 0x38, 0xe2, 0x0a, 0xbf,
  0xf1, 0x04, 0x47, 0x3d, 0x17, 0x3b, 0x01, 0x3f, 0xc2, 0xbf, 0x08, 0xbc,
  0x55, 0xf4, 0x0e, 0x3e, 0x38, 0xcc, 0xed, 0x3d, 0x58, 0xae, 0x9e, 0x3e,
  0xa8, 0x14, 0x1c, 0x3d, 0xa4, 0x0a, 0x43, 0x3c, 0x1d, 0x32, 0x78, 0xbe,
  0xc2, 0x59, 0x51, 0xbe, 0x69, 0x14, 0x10, 0xc0, 0x26, 0x04, 0xcc, 0xbf,
  0xf1, 0xfc, 0x45, 0xbf, 0x70, 0x8c, 0x80, 0x3d, 0x1e, 0x72, 0x9f, 0x3e,
  0x9b, 0xf8, 0x0e, 0x3e, 0x1a, 0xbb, 0x68, 0x3e, 0xe0, 0x75, 0xb2, 0xbe,
  0xab, 0xab, 0xc7, 0x3e, 0xa7, 0xb5, 0x9e, 0x3e, 0x18, 0xc9, 0x27, 0xbf,
  0x81, 0x9d, 0x0b, 0x3e, 0x2e, 0x5a, 0xb3, 0xbf, 0x0e, 0xd1, 0x7e, 0x3e,
  0x7a, 0x61, 0xa1, 0xbe, 0x14, 0xa7, 0xcf, 0xbf, 0x6c, 0x31, 0xcb, 0x3e,
  0xf6, 0x0c, 0xa0, 0xbd, 0xb3, 0x2c, 0xf5, 0xbf, 0xd8, 0xf3, 0x78, 0xbf,
  0xe2, 0xf4, 0x45, 0x3e, 0x3e, 0xee, 0x67, 0xbf, 0x58, 0xee, 0x56, 0x3f,
  0x4f, 0x5e, 0xe6, 0xbe, 0x6d, 0xf5, 0x5f, 0x3e, 0xfd, 0xaa, 0x3d, 0xbf,
  0xd4, 0x1d, 0x28, 0xbe, 0x57, 0xbf, 0xd9, 0xbf, 0x70, 0xaf, 0x5d, 0xbe,
  0x19, 0xb1, 0xb3, 0xbf, 0xd0, 0x8c, 0x91, 0x3c, 0xb0, 0xc4, 0x99, 0x3e,
  0xf7, 0xa7, 0x45, 0xbd, 0xd0, 0xe0, 0x8a, 0xbe, 0x73, 0x8e, 0xb8, 0xbe,
  0x28, 0xf3, 0xe5, 0x3e, 0x6a, 0xdb, 0x85, 0xbe, 0xb8, 0xee, 0x1a, 0x3d,
  0x05, 0x1f, 0x1b, 0x3f, 0xd3, 0xf8, 0xc1, 0xbf, 0xec, 0x78, 0x41, 0x3e,
  0x33, 0x32, 0xd3, 0xbf, 0xa9, 0xc6, 0x46, 0xbf, 0x50, 0xc2, 0xf0, 0x3e,
  0xc3, 0x17, 0x32, 0xbe, 0x73, 0x08, 0x91, 0xbe, 0x56, 0x8f, 0x73, 0x3e,
  0x99, 0xdb, 0x0e, 0xbd, 0xda, 0xf8, 0xed, 0x3d, 0xbf, 0x20, 0xc6, 0xbc,
  0xa4, 0xc3, 0xa1, 0xbf, 0x50, 0xae, 0xd8, 0xbc, 0x32, 0x4c, 0x90, 0x3e,
  0x73, 0x99, 0x1e, 0xbf, 0xe4, 0xf1, 0x3d, 0xbe, 0x21, 0xbe, 0x4e, 0xbe,
  0x19, 0x11, 0x21, 0xbf, 0xbf, 0xd2, 0x1d, 0xbe, 0x38, 0x98, 0xc5, 0xbe,
  0x8b, 0x0a, 0xbd, 0x3e, 0x46, 0x87, 0x1e, 0xbf, 0x54, 0xab, 0x95, 0xbf,
  0x60, 0x6d, 0x43, 0xbd, 0xeb, 0x76, 0x9f, 0xbf, 0x2e, 0x15, 0xa6, 0xbd,
  0xb6, 0x57, 0xbd, 0xbb, 0xc6, 0x60, 0x66, 0xbe, 0x81, 0xf8, 0xf5, 0x3d,
  0x7c, 0x30, 0x8a, 0x3e, 0x58, 0xb4, 0xa0, 0xbf, 0x5a, 0xf2, 0x8a, 0x3e,
  0x7e, 0xc9, 0x95, 0xbe, 0xad, 0x05, 0x46, 0xbf, 0x9a, 0x84, 0x7a, 0xbf,
  0xde, 0xd1, 0x8e, 0xbf, 0xd5, 0xeb, 0x98, 0x3e, 0x78, 0x59, 0x4e, 0xbf,
  0xe6, 0x8e, 0x1d, 0xbf, 0x15, 0xb3, 0xa0, 0x3d, 0xc0, 0x7b, 0x01, 0x3e,
  0x2d, 0xe2, 0xa6, 0xbd, 0x7a, 0x98, 0x0c, 0x3e, 0xa3, 0x88, 0x72, 0x3e,
  0x11, 0x7b, 0x27, 0xbe, 0xce, 0x51, 0x51, 0x3e, 0x12, 0xf7, 0x2a, 0x3e,
  0x5e, 0xec, 0xa5, 0xbe, 0x80, 0x7d, 0x36, 0xbd, 0x04, 0xfb, 0x0c, 0xbe,
  0x54, 0xeb, 0x23, 0x3b, 0xf2, 0x75, 0x04, 0x3f, 0x35, 0xcb, 0x22, 0xbf,
  0xbd, 0x23, 0x48, 0x3e, 0x6f, 0x7e, 0xa0, 0xbf, 0x9c, 0x04, 0xfb, 0x3d,
  0x57, 0x16, 0x8e, 0x3d, 0x0b, 0xad, 0x32, 0xbe, 0x95, 0x54, 0x1b, 0xbe,
  0x78, 0xc1, 0x7e, 0xbd, 0x4b, 0x60, 0x68, 0x3e, 0x4f, 0x84, 0x9c, 0x3b,
  0x83, 0xfe, 0xe4, 0xbf, 0xb0, 0x3c, 0x9e, 0x3d, 0x44, 0x41, 0x59, 0x3e,
  0x63, 0x49, 0x9d, 0x3d, 0xda, 0x59, 0x83, 0xbe, 0x0b, 0x84, 0x67, 0xbe,
  0xf5, 0x77, 0x78, 0x3e, 0xd3, 0x1a, 0x2c, 0xbd, 0x7d, 0x9e, 0x7d, 0xbe,
  0xa1, 0x13, 0x7f, 0x3e, 0x5e, 0x72, 0x8a, 0x3d, 0x29, 0xc7, 0x5e, 0x3e,
  0xe7, 0x21, 0x02, 0xbf, 0x00, 0x05, 0x46, 0x3c, 0xa1, 0x66, 0x81, 0xbf,
  0x78, 0xf1, 0x2d, 0x3e, 0xeb, 0xe1, 0xdc, 0x3d, 0xec, 0x4d, 0xfb, 0xbe,
  0x40, 0xe1, 0x6d, 0xbd, 0x83, 0x16, 0x81, 0x3e, 0x26, 0xf7, 0xd3, 0x3d,
  0x13, 0xff, 0x83, 0x3e, 0x53, 0x9e, 0x1a, 0x3d, 0xcf, 0x11, 0x26, 0xbf,
  0x6a, 0x94, 0x35, 0x3d, 0x05, 0xf8, 0x80, 0x3d, 0xd0, 0x3f, 0x52, 0x3e,
  0x97, 0x96, 0x21, 0xbd, 0xc5, 0x05, 0x7c, 0xbf, 0xf3, 0x51, 0x4f, 0xbe,
  0x59, 0xc5, 0xb0, 0xbe, 0xcc, 0x0b, 0xfb, 0x3d, 0xa3, 0x54, 0x66, 0x3d,
  0x88, 0x7b, 0x61, 0x3e, 0x78, 0xb7, 0x07, 0x3e, 0x9f, 0x55, 0x8c, 0x3d,
  0x9d, 0x63, 0xab, 0xbf, 0xc9, 0xd6, 0x5c, 0x3e, 0x8b, 0x95, 0x8c, 0x3e,
  0xce, 0x61, 0x24, 0x3e, 0xe9, 0xeb, 0x7a, 0x3e, 0xcf, 0x12, 0x82, 0xbf,
  0x0e, 0x9d, 0x11, 0x3e, 0x33, 0x65, 0x88, 0x3e, 0x93, 0xaa, 0x1a, 0xbf,
  0xd8, 0xe4, 0xdd, 0xbe, 0x92, 0xbb, 0x6c, 0x3e, 0xac, 0xb8, 0x88, 0xbe,
  0x11, 0x7a, 0x11, 0xc0, 0xd5, 0x04, 0x7e, 0x3e, 0x6f, 0x9e, 0xac, 0x3e,
  0x79, 0xbf, 0x6b, 0x3e, 0x68, 0x1d, 0x75, 0xbd, 0xc1, 0xab, 0x52, 0x3e,
  0x5a, 0x9f, 0xc0, 0xbf, 0x53, 0x01, 0x83, 0x3e, 0x3d, 0xeb, 0x46, 0xbe,
  0xc1, 0x6b, 0xf9, 0xbf, 0xdb, 0x97, 0x45, 0xbe, 0x6a, 0x84, 0x59, 0x3e,
  0x5c, 0x03, 0xfe, 0xbc, 0x7e, 0x12, 0x4d, 0x3e, 0xec, 0xd5, 0xf6, 0xbf,
  0xc0, 0xd4, 0xa2, 0xbd, 0xa7, 0xd0, 0xf1, 0x3d, 0x98, 0xa0, 0x9e, 0x3d,
  0x3c, 0x50, 0x3c, 0x3e, 0xa9, 0x4e, 0x80, 0xbe, 0x55, 0xde, 0xf4, 0x3e,
  0xaf, 0x66, 0x54, 0x3e, 0x5e, 0xb0, 0x67, 0x3e, 0x23, 0xeb, 0x50, 0x3e,
  0xb0, 0x6e, 0x8f, 0xbe, 0x66, 0x52, 0xb4, 0xbf, 0xea, 0xb5, 0xd8, 0x3d,
  0xe4, 0xc9, 0x33, 0x3e, 0x24, 0xe2, 0x98, 0x3d, 0x02, 0x13, 0x8c, 0xbe,
  0x11, 0x55, 0x14, 0xbd, 0x6a, 0xa6, 0x8d, 0x3a, 0xf2, 0x6f, 0xb4, 0x3d,
  0xe3, 0x80, 0x48, 0xbe, 0xad, 0xb6, 0xab, 0xbc, 0x30, 0xdc, 0x13, 0x3e,
  0xb9, 0x55, 0xde, 0x3e, 0xd2, 0x32, 0x8e, 0xbe, 0x6f, 0x01, 0x99, 0x3e,
  0x01, 0x9b, 0x74, 0xbd, 0x74, 0xca, 0x50, 0xbf, 0xe4, 0xeb, 0x81, 0x3d,
  0xc2, 0x10, 0xd8, 0x3d, 0x36, 0x03, 0xe5, 0xbf, 0x57, 0x6c, 0x4d, 0xbf,
  0x78, 0xea, 0xe4, 0x3c, 0x02, 0x1f, 0x06, 0xbf, 0x14, 0x2a, 0x42, 0x3e,
  0xb8, 0xef, 0xa2, 0x3e, 0x08, 0x19, 0x09, 0xbe, 0xed, 0x0a, 0x9a, 0x3e,
  0x80, 0x7c, 0xe1, 0x3d, 0xd0, 0x79, 0x08, 0xbe, 0x67, 0x50, 0xfd, 0x3d,
  0x67, 0x59, 0x3f, 0xbf, 0x24, 0x3b, 0xb0, 0x3d, 0x0f, 0x7a, 0xb5, 0xbe,
  0xa3, 0x17, 0xe2, 0x3c, 0xff, 0x8f, 0x1d, 0xbe, 0xcd, 0x7e, 0x9c, 0xba,
  0x9a, 0xa8, 0xb1, 0x3e, 0xbe, 0xa7, 0x5e, 0x3e, 0x71, 0x75, 0x52, 0x3d,
  0x5b, 0x6e, 0x31, 0xbe, 0x4b, 0x92, 0xfe, 0xbc, 0xf0, 0xf8, 0xff, 0xff,
  0xf4, 0xf8, 0xff, 0xff, 0x0f, 0x00, 0x00, 0x00, 0x4d, 0x4c, 0x49, 0x52,
  0x20, 0x43, 0x6f, 0x6e, 0x76, 0x65, 0x72, 0x74, 0x65, 0x64, 0x2e, 0x00,
  0x01, 0x00, 0x00, 0x00, 0x14, 0x00, 0x00, 0x00, 0x00, 0x00, 0x0e, 0x00,
  0x18, 0x00, 0x14, 0x00, 0x10, 0x00, 0x0c, 0x00, 0x08, 0x00, 0x04, 0x00,
  0x0e, 0x00, 0x00, 0x00, 0x14, 0x00, 0x00, 0x00, 0x1c, 0x00, 0x00, 0x00,
  0x5c, 0x01, 0x00, 0x00, 0x60, 0x01, 0x00, 0x00, 0x64, 0x01, 0x00, 0x00,
  0x04, 0x00, 0x00, 0x00, 0x6d, 0x61, 0x69, 0x6e, 0x00, 0x00, 0x00, 0x00,
  0x05, 0x00, 0x00, 0x00, 0x04, 0x01, 0x00, 0x00, 0xbc, 0x00, 0x00, 0x00,
  0x84, 0x00, 0x00, 0x00, 0x50, 0x00, 0x00, 0x00, 0x14, 0x00, 0x00, 0x00,
  0x00, 0x00, 0x0e, 0x00, 0x1a, 0x00, 0x14, 0x00, 0x10, 0x00, 0x0c, 0x00,
  0x0b, 0x00, 0x04, 0x00, 0x0e, 0x00, 0x00, 0x00, 0x1c, 0x00, 0x00, 0x00,
  0x00, 0x00, 0x00, 0x09, 0x1c, 0x00, 0x00, 0x00, 0x20, 0x00, 0x00, 0x00,
  0x01, 0x00, 0x00, 0x00, 0x00, 0x00, 0x06, 0x00, 0x08, 0x00, 0x04, 0x00,
  0x06, 0x00, 0x00, 0x00, 0x00, 0x00, 0x80, 0x3f, 0x01, 0x00, 0x00, 0x00,
  0x0d, 0x00, 0x00, 0x00, 0x01, 0x00, 0x00, 0x00, 0x0c, 0x00, 0x00, 0x00,
  0x66, 0xff, 0xff, 0xff, 0x10, 0x00, 0x00, 0x00, 0x00, 0x00, 0x00, 0x08,
  0x0c, 0x00, 0x00, 0x00, 0x10, 0x00, 0x00, 0x00, 0xbc, 0xf9, 0xff, 0xff,
  0x01, 0x00, 0x00, 0x00, 0x0c, 0x00, 0x00, 0x00, 0x03, 0x00, 0x00, 0x00,
  0x0b, 0x00, 0x00, 0x00, 0x01, 0x00, 0x00, 0x00, 0x04, 0x00, 0x00, 0x00,
  0x96, 0xff, 0xff, 0xff, 0x10, 0x00, 0x00, 0x00, 0x00, 0x00, 0x00, 0x08,
  0x10, 0x00, 0x00, 0x00, 0x14, 0x00, 0x00, 0x00, 0x86, 0xff, 0xff, 0xff,
  0x00, 0x00, 0x00, 0x01, 0x01, 0x00, 0x00, 0x00, 0x0b, 0x00, 0x00, 0x00,
  0x03, 0x00, 0x00, 0x00, 0x0a, 0x00, 0x00, 0x00, 0x02, 0x00, 0x00, 0x00,
  0x05, 0x00, 0x00, 0x00, 0xca, 0xff, 0xff, 0xff, 0x10, 0x00, 0x00, 0x00,
  0x00, 0x00, 0x00, 0x08, 0x10, 0x00, 0x00, 0x00, 0x14, 0x00, 0x00, 0x00,
  0xba, 0xff, 0xff, 0xff, 0x00, 0x00, 0x00, 0x01, 0x01, 0x00, 0x00, 0x00,
  0x0a, 0x00, 0x00, 0x00, 0x03, 0x00, 0x00, 0x00, 0x09, 0x00, 0x00, 0x00,
  0x03, 0x00, 0x00, 0x00, 0x06, 0x00, 0x00, 0x00, 0x00, 0x00, 0x0e, 0x00,
  0x16, 0x00, 0x00, 0x00, 0x10, 0x00, 0x0c, 0x00, 0x0b, 0x00, 0x04, 0x00,
  0x0e, 0x00, 0x00, 0x00, 0x18, 0x00, 0x00, 0x00, 0x00, 0x00, 0x00, 0x08,
  0x18, 0x00, 0x00, 0x00, 0x1c, 0x00, 0x00, 0x00, 0x00, 0x00, 0x06, 0x00,
  0x08, 0x00, 0x07, 0x00, 0x06, 0x00, 0x00, 0x00, 0x00, 0x00, 0x00, 0x01,
  0x01, 0x00, 0x00, 0x00, 0x09, 0x00, 0x00, 0x00, 0x03, 0x00, 0x00, 0x00,
  0x00, 0x00, 0x00, 0x00, 0x08, 0x00, 0x00, 0x00, 0x07, 0x00, 0x00, 0x00,
  0x01, 0x00, 0x00, 0x00, 0x0d, 0x00, 0x00, 0x00, 0x01, 0x00, 0x00, 0x00,
  0x00, 0x00, 0x00, 0x00, 0x0e, 0x00, 0x00, 0x00, 0x38, 0x05, 0x00, 0x00,
  0xe0, 0x04, 0x00, 0x00, 0x88, 0x04, 0x00, 0x00, 0x48, 0x04, 0x00, 0x00,
  0x0c, 0x04, 0x00, 0x00, 0xd0, 0x03, 0x00, 0x00, 0x94, 0x03, 0x00, 0x00,
  0x34, 0x03, 0x00, 0x00, 0xe0, 0x02, 0x00, 0x00, 0x38, 0x02, 0x00, 0x00,
  0x90, 0x01, 0x00, 0x00, 0xe8, 0x00, 0x00, 0x00, 0x60, 0x00, 0x00, 0x00,
  0x04, 0x00, 0x00, 0x00, 0x16, 0xfb, 0xff, 0xff, 0x00, 0x00, 0x00, 0x01,
  0x14, 0x00, 0x00, 0x00, 0x1c, 0x00, 0x00, 0x00, 0x1c, 0x00, 0x00, 0x00,
  0x0e, 0x00, 0x00, 0x00, 0x34, 0x00, 0x00, 0x00, 0x02, 0x00, 0x00, 0x00,
  0xff, 0xff, 0xff, 0xff, 0x1a, 0x00, 0x00, 0x00, 0x00, 0xfb, 0xff, 0xff,
  0x1b, 0x00, 0x00, 0x00, 0x53, 0x74, 0x61, 0x74, 0x65, 0x66, 0x75, 0x6c,
  0x50, 0x61, 0x72, 0x74, 0x69, 0x74, 0x69, 0x6f, 0x6e, 0x65, 0x64, 0x43,
  0x61, 0x6c, 0x6c, 0x5f, 0x31, 0x3a, 0x30, 0x00, 0x02, 0x00, 0x00, 0x00,
  0x01, 0x00, 0x00, 0x00, 0x1a, 0x00, 0x00, 0x00, 0x6e, 0xfb, 0xff, 0xff,
  0x00, 0x00, 0x00, 0x01, 0x14, 0x00, 0x00, 0x00, 0x1c, 0x00, 0x00, 0x00,
  0x1c, 0x00, 0x00, 0x00, 0x0d, 0x00, 0x00, 0x00, 0x60, 0x00, 0x00, 0x00,
  0x02, 0x00, 0x00, 0x00, 0xff, 0xff, 0xff, 0xff, 0x1a, 0x00, 0x00, 0x00,
  0x58, 0xfb, 0xff, 0xff, 0x46, 0x00, 0x00, 0x00, 0x73, 0x65, 0x71, 0x75,
  0x65, 0x6e, 0x74, 0x69, 0x61, 0x6c, 0x5f, 0x32, 0x34, 0x5f, 0x31, 0x2f,
  0x64, 0x65, 0x6e, 0x73, 0x65, 0x5f, 0x31, 0x30, 0x33, 0x5f, 0x31, 0x2f,
  0x4d, 0x61, 0x74, 0x4d, 0x75, 0x6c, 0x3b, 0x73, 0x65, 0x71, 0x75, 0x65,
  0x6e, 0x74, 0x69, 0x61, 0x6c, 0x5f, 0x32, 0x34, 0x5f, 0x31, 0x2f, 0x64,
  0x65, 0x6e, 0x73, 0x65, 0x5f, 0x31, 0x30, 0x33, 0x5f, 0x31, 0x2f, 0x42,
  0x69, 0x61, 0x73, 0x41, 0x64, 0x64, 0x00, 0x00, 0x02, 0x00, 0x00, 0x00,
  0x01, 0x00, 0x00, 0x00, 0x1a, 0x00, 0x00, 0x00, 0xf2, 0xfb, 0xff, 0xff,
  0x00, 0x00, 0x00, 0x01, 0x14, 0x00, 0x00, 0x00, 0x1c, 0x00, 0x00, 0x00,
  0x1c, 0x00, 0x00, 0x00, 0x0c, 0x00, 0x00, 0x00, 0x80, 0x00, 0x00, 0x00,
  0x02, 0x00, 0x00, 0x00, 0xff, 0xff, 0xff, 0xff, 0x22, 0x00, 0x00, 0x00,
  0xdc, 0xfb, 0xff, 0xff, 0x67, 0x00, 0x00, 0x00, 0x73, 0x65, 0x71, 0x75,
  0x65, 0x6e, 0x74, 0x69, 0x61, 0x6c, 0x5f, 0x32, 0x34, 0x5f, 0x31, 0x2f,
  0x64, 0x65, 0x6e, 0x73, 0x65, 0x5f, 0x31, 0x30, 0x32, 0x5f, 0x31, 0x2f,
  0x4d, 0x61, 0x74, 0x4d, 0x75, 0x6c, 0x3b, 0x73, 0x65, 0x71, 0x75, 0x65,
  0x6e, 0x74, 0x69, 0x61, 0x6c, 0x5f, 0x32, 0x34, 0x5f, 0x31, 0x2f, 0x64,
  0x65, 0x6e, 0x73, 0x65, 0x5f, 0x31, 0x30, 0x32, 0x5f, 0x31, 0x2f, 0x52,
  0x65, 0x6c, 0x75, 0x3b, 0x73, 0x65, 0x71, 0x75, 0x65, 0x6e, 0x74, 0x69,
  0x61, 0x6c, 0x5f, 0x32, 0x34, 0x5f, 0x31, 0x2f, 0x64, 0x65, 0x6e, 0x73,
  0x65, 0x5f, 0x31, 0x30, 0x32, 0x5f, 0x31, 0x2f, 0x42, 0x69, 0x61, 0x73,
  0x41, 0x64, 0x64, 0x00, 0x02, 0x00, 0x00, 0x00, 0x01, 0x00, 0x00, 0x00,
  0x22, 0x00, 0x00, 0x00, 0x96, 0xfc, 0xff, 0xff, 0x00, 0x00, 0x00, 0x01,
  0x14, 0x00, 0x00, 0x00, 0x1c, 0x00, 0x00, 0x00, 0x1c, 0x00, 0x00, 0x00,
  0x0b, 0x00, 0x00, 0x00, 0x80, 0x00, 0x00, 0x00, 0x02, 0x00, 0x00, 0x00,
  0xff, 0xff, 0xff, 0xff, 0x10, 0x00, 0x00, 0x00, 0x80, 0xfc, 0xff, 0xff,
  0x67, 0x00, 0x00, 0x00, 0x73, 0x65, 0x71, 0x75, 0x65, 0x6e, 0x74, 0x69,
  0x61, 0x6c, 0x5f, 0x32, 0x34, 0x5f, 0x31, 0x2f, 0x64, 0x65, 0x6e, 0x73,
  0x65, 0x5f, 0x31, 0x30, 0x31, 0x5f, 0x31, 0x2f, 0x4d, 0x61, 0x74, 0x4d,
  0x75, 0x6c, 0x3b, 0x73, 0x65, 0x71, 0x75, 0x65, 0x6e, 0x74, 0x69, 0x61,
  0x6c, 0x5f, 0x32, 0x34, 0x5f, 0x31, 0x2f, 0x64, 0x65, 0x6e, 0x73, 0x65,
  0x5f, 0x31, 0x30, 0x31, 0x5f, 0x31, 0x2f, 0x52, 0x65, 0x6c, 0x75, 0x3b,
  0x73, 0x65, 0x71, 0x75, 0x65, 0x6e, 0x74, 0x69, 0x61, 0x6c, 0x5f, 0x32,
  0x34, 0x5f, 0x31, 0x2f, 0x64, 0x65, 0x6e, 0x73, 0x65, 0x5f, 0x31, 0x30,
  0x31, 0x5f, 0x31, 0x2f, 0x42, 0x69, 0x61, 0x73, 0x41, 0x64, 0x64, 0x00,
  0x02, 0x00, 0x00, 0x00, 0x01, 0x00, 0x00, 0x00, 0x10, 0x00, 0x00, 0x00,
  0x3a, 0xfd, 0xff, 0xff, 0x00, 0x00, 0x00, 0x01, 0x14, 0x00, 0x00, 0x00,
  0x1c, 0x00, 0x00, 0x00, 0x1c, 0x00, 0x00, 0x00, 0x0a, 0x00, 0x00, 0x00,
  0x80, 0x00, 0x00, 0x00, 0x02, 0x00, 0x00, 0x00, 0xff, 0xff, 0xff, 0xff,
  0x08, 0x00, 0x00, 0x00, 0x24, 0xfd, 0xff, 0xff, 0x67, 0x00, 0x00, 0x00,
  0x73, 0x65, 0x71, 0x75, 0x65, 0x6e, 0x74, 0x69, 0x61, 0x6c, 0x5f, 0x32,
  0x34, 0x5f, 0x31, 0x2f, 0x64, 0x65, 0x6e, 0x73, 0x65, 0x5f, 0x31, 0x30,
  0x30, 0x5f, 0x31, 0x2f, 0x4d, 0x61, 0x74, 0x4d, 0x75, 0x6c, 0x3b, 0x73,
  0x65, 0x71, 0x75, 0x65, 0x6e, 0x74, 0x69, 0x61, 0x6c, 0x5f, 0x32, 0x34,
  0x5f, 0x31, 0x2f, 0x64, 0x65, 0x6e, 0x73, 0x65, 0x5f, 0x31, 0x30, 0x30,
  0x5f, 0x31, 0x2f, 0x52, 0x65, 0x6c, 0x75, 0x3b, 0x73, 0x65, 0x71, 0x75,
  0x65, 0x6e, 0x74, 0x69, 0x61, 0x6c, 0x5f, 0x32, 0x34, 0x5f, 0x31, 0x2f,
  0x64, 0x65, 0x6e, 0x73, 0x65, 0x5f, 0x31, 0x30, 0x30, 0x5f, 0x31, 0x2f,
  0x42, 0x69, 0x61, 0x73, 0x41, 0x64, 0x64, 0x00, 0x02, 0x00, 0x00, 0x00,
  0x01, 0x00, 0x00, 0x00, 0x08, 0x00, 0x00, 0x00, 0x32, 0xfe, 0xff, 0xff,
  0x00, 0x00, 0x00, 0x01, 0x10, 0x00, 0x00, 0x00, 0x10, 0x00, 0x00, 0x00,
  0x09, 0x00, 0x00, 0x00, 0x30, 0x00, 0x00, 0x00, 0xb8, 0xfd, 0xff, 0xff,
  0x22, 0x00, 0x00, 0x00, 0x73, 0x65, 0x71, 0x75, 0x65, 0x6e, 0x74, 0x69,
  0x61, 0x6c, 0x5f, 0x32, 0x34, 0x5f, 0x31, 0x2f, 0x64, 0x65, 0x6e, 0x73,
  0x65, 0x5f, 0x31, 0x30, 0x30, 0x5f, 0x31, 0x2f, 0x4d, 0x61, 0x74, 0x4d,
  0x75, 0x6c, 0x00, 0x00, 0x02, 0x00, 0x00, 0x00, 0x08, 0x00, 0x00, 0x00,
  0x05, 0x00, 0x00, 0x00, 0x82, 0xfe, 0xff, 0xff, 0x00, 0x00, 0x00, 0x01,
  0x10, 0x00, 0x00, 0x00, 0x10, 0x00, 0x00, 0x00, 0x08, 0x00, 0x00, 0x00,
  0x40, 0x00, 0x00, 0x00, 0x08, 0xfe, 0xff, 0xff, 0x32, 0x00, 0x00, 0x00,
  0x73, 0x65, 0x71, 0x75, 0x65, 0x6e, 0x74, 0x69, 0x61, 0x6c, 0x5f, 0x32,
  0x34, 0x5f, 0x31, 0x2f, 0x64, 0x65, 0x6e, 0x73, 0x65, 0x5f, 0x31, 0x30,
  0x30, 0x5f, 0x31, 0x2f, 0x42, 0x69, 0x61, 0x73, 0x41, 0x64, 0x64, 0x2f,
  0x52, 0x65, 0x61, 0x64, 0x56, 0x61, 0x72, 0x69, 0x61, 0x62, 0x6c, 0x65,
  0x4f, 0x70, 0x00, 0x00, 0x01, 0x00, 0x00, 0x00, 0x08, 0x00, 0x00, 0x00,
  0xde, 0xfe, 0xff, 0xff, 0x00, 0x00, 0x00, 0x01, 0x10, 0x00, 0x00, 0x00,
  0x10, 0x00, 0x00, 0x00, 0x07, 0x00, 0x00, 0x00, 0x1c, 0x00, 0x00, 0x00,
  0x64, 0xfe, 0xff, 0xff, 0x0f, 0x00, 0x00, 0x00, 0x61, 0x72, 0x69, 0x74,
  0x68, 0x2e, 0x63, 0x6f, 0x6e, 0x73, 0x74, 0x61, 0x6e, 0x74, 0x35, 0x00,
  0x01, 0x00, 0x00, 0x00, 0x10, 0x00, 0x00, 0x00, 0x16, 0xff, 0xff, 0xff,
  0x00, 0x00, 0x00, 0x01, 0x10, 0x00, 0x00, 0x00, 0x10, 0x00, 0x00, 0x00,
  0x06, 0x00, 0x00, 0x00, 0x1c, 0x00, 0x00, 0x00, 0x9c, 0xfe, 0xff, 0xff,
  0x0f, 0x00, 0x00, 0x00, 0x61, 0x72, 0x69, 0x74, 0x68, 0x2e, 0x63, 0x6f,
  0x6e, 0x73, 0x74, 0x61, 0x6e, 0x74, 0x34, 0x00, 0x01, 0x00, 0x00, 0x00,
  0x22, 0x00, 0x00, 0x00, 0x4e, 0xff, 0xff, 0xff, 0x00, 0x00, 0x00, 0x01,
  0x10, 0x00, 0x00, 0x00, 0x10, 0x00, 0x00, 0x00, 0x05, 0x00, 0x00, 0x00,
  0x1c, 0x00, 0x00, 0x00, 0xd4, 0xfe, 0xff, 0xff, 0x0f, 0x00, 0x00, 0x00,
  0x61, 0x72, 0x69, 0x74, 0x68, 0x2e, 0x63, 0x6f, 0x6e, 0x73, 0x74, 0x61,
  0x6e, 0x74, 0x33, 0x00, 0x01, 0x00, 0x00, 0x00, 0x1a, 0x00, 0x00, 0x00,
  0x86, 0xff, 0xff, 0xff, 0x00, 0x00, 0x00, 0x01, 0x10, 0x00, 0x00, 0x00,
  0x10, 0x00, 0x00, 0x00, 0x04, 0x00, 0x00, 0x00, 0x1c, 0x00, 0x00, 0x00,
  0x0c, 0xff, 0xff, 0xff, 0x0f, 0x00, 0x00, 0x00, 0x61, 0x72, 0x69, 0x74,
  0x68, 0x2e, 0x63, 0x6f, 0x6e, 0x73, 0x74, 0x61, 0x6e, 0x74, 0x32, 0x00,
  0x02, 0x00, 0x00, 0x00, 0x10, 0x00, 0x00, 0x00, 0x08, 0x00, 0x00, 0x00,
  0xc2, 0xff, 0xff, 0xff, 0x00, 0x00, 0x00, 0x01, 0x10, 0x00, 0x00, 0x00,
  0x10, 0x00, 0x00, 0x00, 0x03, 0x00, 0x00, 0x00, 0x1c, 0x00, 0x00, 0x00,
  0x48, 0xff, 0xff, 0xff, 0x0f, 0x00, 0x00, 0x00, 0x61, 0x72, 0x69, 0x74,
  0x68, 0x2e, 0x63, 0x6f, 0x6e, 0x73, 0x74, 0x61, 0x6e, 0x74, 0x31, 0x00,
  0x02, 0x00, 0x00, 0x00, 0x22, 0x00, 0x00, 0x00, 0x10, 0x00, 0x00, 0x00,
  0x00, 0x00, 0x16, 0x00, 0x18, 0x00, 0x14, 0x00, 0x00, 0x00, 0x10, 0x00,
  0x0c, 0x00, 0x08, 0x00, 0x00, 0x00, 0x00, 0x00, 0x00, 0x00, 0x07, 0x00,
  0x16, 0x00, 0x00, 0x00, 0x00, 0x00, 0x00, 0x01, 0x10, 0x00, 0x00, 0x00,
  0x10, 0x00, 0x00, 0x00, 0x02, 0x00, 0x00, 0x00, 0x1c, 0x00, 0x00, 0x00,
  0x9c, 0xff, 0xff, 0xff, 0x0e, 0x00, 0x00, 0x00, 0x61, 0x72, 0x69, 0x74,
  0x68, 0x2e, 0x63, 0x6f, 0x6e, 0x73, 0x74, 0x61, 0x6e, 0x74, 0x00, 0x00,
  0x02, 0x00, 0x00, 0x00, 0x1a, 0x00, 0x00, 0x00, 0x22, 0x00, 0x00, 0x00,
  0x00, 0x00, 0x16, 0x00, 0x1c, 0x00, 0x18, 0x00, 0x00, 0x00, 0x14, 0x00,
  0x10, 0x00, 0x0c, 0x00, 0x00, 0x00, 0x00, 0x00, 0x08, 0x00, 0x07, 0x00,
  0x16, 0x00, 0x00, 0x00, 0x00, 0x00, 0x00, 0x01, 0x14, 0x00, 0x00, 0x00,
  0x20, 0x00, 0x00, 0x00, 0x20, 0x00, 0x00, 0x00, 0x01, 0x00, 0x00, 0x00,
  0x40, 0x00, 0x00, 0x00, 0x02, 0x00, 0x00, 0x00, 0xff, 0xff, 0xff, 0xff,
  0x05, 0x00, 0x00, 0x00, 0x04, 0x00, 0x04, 0x00, 0x04, 0x00, 0x00, 0x00,
  0x22, 0x00, 0x00, 0x00, 0x73, 0x65, 0x72, 0x76, 0x69, 0x6e, 0x67, 0x5f,
  0x64, 0x65, 0x66, 0x61, 0x75, 0x6c, 0x74, 0x5f, 0x6b, 0x65, 0x72, 0x61,
  0x73, 0x5f, 0x74, 0x65, 0x6e, 0x73, 0x6f, 0x72, 0x5f, 0x34, 0x36, 0x38,
  0x3a, 0x30, 0x00, 0x00, 0x02, 0x00, 0x00, 0x00, 0x01, 0x00, 0x00, 0x00,
  0x05, 0x00, 0x00, 0x00, 0x02, 0x00, 0x00, 0x00, 0x20, 0x00, 0x00, 0x00,
  0x04, 0x00, 0x00, 0x00, 0xf4, 0xff, 0xff, 0xff, 0x19, 0x00, 0x00, 0x00,
  0x00, 0x00, 0x00, 0x19, 0x0c, 0x00, 0x0c, 0x00, 0x0b, 0x00, 0x00, 0x00,
  0x00, 0x00, 0x04, 0x00, 0x0c, 0x00, 0x00, 0x00, 0x09, 0x00, 0x00, 0x00,
  0x00, 0x00, 0x00, 0x09
};
unsigned int model_len = 9244;
