unsigned char model[] = {
  0x1c, 0x00, 0x00, 0x00, 0x54, 0x46, 0x4c, 0x33, 0x14, 0x00, 0x20, 0x00,
  0x1c, 0x00, 0x18, 0x00, 0x14, 0x00, 0x10, 0x00, 0x0c, 0x00, 0x00, 0x00,
  0x08, 0x00, 0x04, 0x00, 0x14, 0x00, 0x00, 0x00, 0x1c, 0x00, 0x00, 0x00,
  0x9c, 0x00, 0x00, 0x00, 0xf4, 0x00, 0x00, 0x00, 0x48, 0x0f, 0x00, 0x00,
  0x58, 0x0f, 0x00, 0x00, 0x84, 0x16, 0x00, 0x00, 0x03, 0x00, 0x00, 0x00,
  0x01, 0x00, 0x00, 0x00, 0x10, 0x00, 0x00, 0x00, 0x00, 0x00, 0x0a, 0x00,
  0x10, 0x00, 0x0c, 0x00, 0x08, 0x00, 0x04, 0x00, 0x0a, 0x00, 0x00, 0x00,
  0x0c, 0x00, 0x00, 0x00, 0x1c, 0x00, 0x00, 0x00, 0x3c, 0x00, 0x00, 0x00,
  0x0f, 0x00, 0x00, 0x00, 0x73, 0x65, 0x72, 0x76, 0x69, 0x6e, 0x67, 0x5f,
  0x64, 0x65, 0x66, 0x61, 0x75, 0x6c, 0x74, 0x00, 0x01, 0x00, 0x00, 0x00,
  0x04, 0x00, 0x00, 0x00, 0x8c, 0xff, 0xff, 0xff, 0x0d, 0x00, 0x00, 0x00,
  0x04, 0x00, 0x00, 0x00, 0x08, 0x00, 0x00, 0x00, 0x6f, 0x75, 0x74, 0x70,
  0x75, 0x74, 0x5f, 0x30, 0x00, 0x00, 0x00, 0x00, 0x01, 0x00, 0x00, 0x00,
  0x04, 0x00, 0x00, 0x00, 0x9a, 0xf0, 0xff, 0xff, 0x04, 0x00, 0x00, 0x00,
  0x10, 0x00, 0x00, 0x00, 0x6b, 0x65, 0x72, 0x61, 0x73, 0x5f, 0x74, 0x65,
  0x6e, 0x73, 0x6f, 0x72, 0x5f, 0x31, 0x37, 0x37, 0x00, 0x00, 0x00, 0x00,
  0x02, 0x00, 0x00, 0x00, 0x34, 0x00, 0x00, 0x00, 0x04, 0x00, 0x00, 0x00,
  0xdc, 0xff, 0xff, 0xff, 0x10, 0x00, 0x00, 0x00, 0x04, 0x00, 0x00, 0x00,
  0x13, 0x00, 0x00, 0x00, 0x43, 0x4f, 0x4e, 0x56, 0x45, 0x52, 0x53, 0x49,
  0x4f, 0x4e, 0x5f, 0x4d, 0x45, 0x54, 0x41, 0x44, 0x41, 0x54, 0x41, 0x00,
  0x08, 0x00, 0x0c, 0x00, 0x08, 0x00, 0x04, 0x00, 0x08, 0x00, 0x00, 0x00,
  0x0f, 0x00, 0x00, 0x00, 0x04, 0x00, 0x00, 0x00, 0x13, 0x00, 0x00, 0x00,
  0x6d, 0x69, 0x6e, 0x5f, 0x72, 0x75, 0x6e, 0x74, 0x69, 0x6d, 0x65, 0x5f,
  0x76, 0x65, 0x72, 0x73, 0x69, 0x6f, 0x6e, 0x00, 0x11, 0x00, 0x00, 0x00,
  0x50, 0x0e, 0x00, 0x00, 0x48, 0x0e, 0x00, 0x00, 0xb8, 0x0c, 0x00, 0x00,
  0xa8, 0x04, 0x00, 0x00, 0x98, 0x02, 0x00, 0x00, 0x7c, 0x02, 0x00, 0x00,
  0xec, 0x01, 0x00, 0x00, 0x9c, 0x01, 0x00, 0x00, 0x6c, 0x01, 0x00, 0x00,
  0xbc, 0x00, 0x00, 0x00, 0xb4, 0x00, 0x00, 0x00, 0xac, 0x00, 0x00, 0x00,
  0xa4, 0x00, 0x00, 0x00, 0x9c, 0x00, 0x00, 0x00, 0x94, 0x00, 0x00, 0x00,
  0x74, 0x00, 0x00, 0x00, 0x04, 0x00, 0x00, 0x00, 0x5e, 0xf1, 0xff, 0xff,
  0x04, 0x00, 0x00, 0x00, 0x60, 0x00, 0x00, 0x00, 0x0c, 0x00, 0x00, 0x00,
  0x08, 0x00, 0x0e, 0x00, 0x08, 0x00, 0x04, 0x00, 0x08, 0x00, 0x00, 0x00,
  0x10, 0x00, 0x00, 0x00, 0x28, 0x00, 0x00, 0x00, 0x00, 0x00, 0x06, 0x00,
  0x08, 0x00, 0x04, 0x00, 0x06, 0x00, 0x00, 0x00, 0x04, 0x00, 0x00, 0x00,
  0x01, 0x00, 0x00, 0x00, 0xea, 0x03, 0x00, 0x00, 0x0c, 0x00, 0x18, 0x00,
  0x14, 0x00, 0x10, 0x00, 0x0c, 0x00, 0x04, 0x00, 0x0c, 0x00, 0x00, 0x00,
  0x98, 0x0c, 0x72, 0x31, 0x96, 0x4e, 0xd7, 0x6d, 0x02, 0x00, 0x00, 0x00,
  0x02, 0x00, 0x00, 0x00, 0x04, 0x00, 0x00, 0x00, 0x06, 0x00, 0x00, 0x00,
  0x32, 0x2e, 0x31, 0x38, 0x2e, 0x30, 0x00, 0x00, 0xca, 0xf1, 0xff, 0xff,
  0x04, 0x00, 0x00, 0x00, 0x10, 0x00, 0x00, 0x00, 0x31, 0x2e, 0x35, 0x2e,
  0x30, 0x00, 0x00, 0x00, 0x00, 0x00, 0x00, 0x00, 0x00, 0x00, 0x00, 0x00,
  0x70, 0xeb, 0xff, 0xff, 0x74, 0xeb, 0xff, 0xff, 0x78, 0xeb, 0xff, 0xff,
  0x7c, 0xeb, 0xff, 0xff, 0x80, 0xeb, 0xff, 0xff, 0xfa, 0xf1, 0xff, 0xff,
  0x04, 0x00, 0x00, 0x00, 0xa0, 0x00, 0x00, 0x00, 0x14, 0x6a, 0x62, 0xbe,
  0x75, 0x5d, 0x43, 0x3e, 0x0f, 0xf5, 0x30, 0x3f, 0x0a, 0x58, 0x04, 0x3f,
  0x30, 0x1d, 0x46, 0x3e, 0x87, 0xe0, 0x2c, 0xbe, 0x1a, 0x2c, 0xf0, 0x3d,
  0x87, 0x54, 0x4f, 0x3f, 0x04, 0x72, 0x6a, 0x3e, 0x59, 0x27, 0x85, 0xbe,
  0xc2, 0x42, 0x37, 0xbf, 0xa4, 0x0c, 0xea, 0x3d, 0xd9, 0xa3, 0x02, 0x3f,
  0x6e, 0xf5, 0xd9, 0xbe, 0x2d, 0xb4, 0xbd, 0xbe, 0x42, 0xcf, 0xc3, 0x3e,
  0x19, 0x0b, 0x49, 0xbf, 0x4e, 0x95, 0x4b, 0xbe, 0x90, 0x5e, 0xc9, 0x3d,
  0x74, 0x37, 0x9b, 0x3e, 0x0c, 0x9c, 0x17, 0x3f, 0xf0, 0x2f, 0xbb, 0xbc,
  0x85, 0x3b, 0x18, 0xbe, 0x21, 0xfc, 0x9b, 0xbe, 0xe4, 0x5a, 0x24, 0x3e,
  0x67, 0x00, 0x3d, 0x3f, 0xdc, 0x86, 0x39, 0x3f, 0x51, 0xaf, 0x39, 0x3e,
  0x30, 0xfe, 0x1e, 0x3e, 0x3c, 0x99, 0xc5, 0x3e, 0xc8, 0xc0, 0x7f, 0x3e,
  0x98, 0xe5, 0x94, 0x3e, 0x2c, 0x01, 0x8c, 0xbd, 0xc3, 0x8c, 0xcc, 0xbe,
  0x60, 0x4d, 0x8b, 0x3d, 0x0c, 0x83, 0x3e, 0x3f, 0xcd, 0x4a, 0x99, 0x3e,
  0x2f, 0xe3, 0x04, 0x3f, 0x08, 0xe5, 0x06, 0x3f, 0x66, 0xc1, 0x25, 0x3f,
  0xa6, 0xf2, 0xff, 0xff, 0x04, 0x00, 0x00, 0x00, 0x20, 0x00, 0x00, 0x00,
  0xbd, 0x48, 0x45, 0x3e, 0x14, 0x74, 0x1e, 0x3e, 0x77, 0x2b, 0x91, 0x3e,
  0x67, 0x48, 0x51, 0x3e, 0x79, 0xf5, 0x0c, 0xbc, 0x8b, 0xda, 0xab, 0xbd,
  0xb5, 0x55, 0x8a, 0x3e, 0xe6, 0xfb, 0xcd, 0xbd, 0xd2, 0xf2, 0xff, 0xff,
  0x04, 0x00, 0x00, 0x00, 0x40, 0x00, 0x00, 0x00, 0xe8, 0xd7, 0x14, 0x3e,
  0x04, 0x8c, 0x5f, 0xbd, 0xa6, 0x10, 0x69, 0x3e, 0x23, 0xa2, 0x0e, 0xbe,
  0x15, 0x3b, 0x4c, 0x3e, 0x73, 0x53, 0x04, 0xbd, 0x00, 0x00, 0x00, 0x00,
  0x59, 0xd8, 0x18, 0xbc, 0x00, 0x00, 0x00, 0x00, 0x00, 0x00, 0x00, 0x00,
  0xa4, 0x79, 0x80, 0x3c, 0xfe, 0xbe, 0x5d, 0x3e, 0x00, 0x00, 0x00, 0x00,
  0x55, 0x66, 0x3c, 0xbd, 0x61, 0x32, 0x78, 0x3d, 0x00, 0x00, 0x00, 0x00,
  0x1e, 0xf3, 0xff, 0xff, 0x04, 0x00, 0x00, 0x00, 0x80, 0x00, 0x00, 0x00,
  0x5c, 0xca, 0x20, 0xbe, 0x00, 0x00, 0x00, 0x00, 0x3d, 0x9f, 0x37, 0x3e,
  0x05, 0xf5, 0xd3, 0xbb, 0x64, 0xe7, 0x23, 0x3e, 0x75, 0xa3, 0x39, 0x3e,
  0xb6, 0x8c, 0x2e, 0x3e, 0x23, 0x2c, 0xfc, 0xbb, 0xef, 0x9c, 0x65, 0x3e,
  0xbf, 0x57, 0xa5, 0x3d, 0xbd, 0xad, 0xe5, 0x3c, 0xb6, 0xd2, 0x9c, 0xbc,
  0x00, 0x00, 0x00, 0x00, 0x00, 0x00, 0x00, 0x00, 0x00, 0x00, 0x00, 0x00,
  0x6d, 0x4e, 0x21, 0x3e, 0x5d, 0xbd, 0x3a, 0x3e, 0xa7, 0xfc, 0x49, 0x3e,
  0x82, 0x8c, 0x84, 0x3c, 0x5b, 0x68, 0x53, 0x3e, 0x00, 0x00, 0x00, 0x00,
  0xaa, 0x30, 0x0a, 0xbe, 0x3c, 0xeb, 0x35, 0x3d, 0xe8, 0xc4, 0x5c, 0x3e,
  0x00, 0x8b, 0x6b, 0x3d, 0x35, 0x42, 0x6a, 0xbc, 0xf7, 0xba, 0xdc, 0xbc,
  0x8b, 0x69, 0xef, 0x3b, 0x46, 0x87, 0x2f, 0xbe, 0x00, 0x00, 0x00, 0x00,
  0x73, 0x26, 0x4e, 0x3e, 0x9f, 0x80, 0x1d, 0x3e, 0xaa, 0xf3, 0xff, 0xff,
  0x04, 0x00, 0x00, 0x00, 0x0c, 0x00, 0x00, 0x00, 0xca, 0xa6, 0x2b, 0xbe,
  0x21, 0x4c, 0x12, 0x3e, 0x72, 0xad, 0x4c, 0xbd, 0xc2, 0xf3, 0xff, 0xff,
  0x04, 0x00, 0x00, 0x00, 0x00, 0x02, 0x00, 0x00, 0xc0, 0xa8, 0xdc, 0xbe,
  0x25, 0x8a, 0xd9, 0xbe, 0x09, 0x44, 0xd0, 0xbe, 0x4e, 0xc1, 0x39, 0x3f,
  0x54, 0x8d, 0x0f, 0x3f, 0x61, 0xdd, 0xce, 0x3e, 0xa6, 0xb1, 0x03, 0x3f,
  0xbe, 0xcf, 0x9c, 0xbe, 0x2b, 0x9d, 0x50, 0x3e, 0xa5, 0x42, 0xb8, 0xbe,
  0xb3, 0xa0, 0xbb, 0x3d, 0xef, 0x4c, 0x87, 0x3e, 0xc2, 0x76, 0x42, 0x3f,
  0xbf, 0xdf, 0x24, 0x3f, 0xfb, 0xa7, 0x52, 0xbe, 0x40, 0x62, 0x2d, 0x3d,
  0xe2, 0x27, 0x12, 0x3f, 0x07, 0x02, 0x3b, 0x3f, 0x01, 0x7a, 0x35, 0x3f,
  0x4c, 0xb2, 0x48, 0x3d, 0xaf, 0x12, 0x7f, 0xbe, 0xa5, 0x6e, 0xc2, 0xbe,
  0xa8, 0x4a, 0xfc, 0x3d, 0x3d, 0xce, 0x94, 0xbd, 0xd4, 0xb5, 0xdf, 0x3e,
  0x6a, 0xcf, 0x5e, 0x3e, 0x2e, 0xb6, 0xf7, 0xbe, 0xb3, 0x74, 0x38, 0xbf,
  0xdc, 0x35, 0x7e, 0x3e, 0x34, 0xd4, 0x25, 0x3f, 0x7f, 0xfe, 0x64, 0xbe,
  0x00, 0x9c, 0xec, 0x3e, 0x57, 0xc8, 0x21, 0x3f, 0xc1, 0xb0, 0x18, 0x3e,
  0x90, 0x77, 0xa4, 0xbc, 0x3d, 0xf4, 0x2a, 0xbf, 0xcb, 0x13, 0xc8, 0xbe,
  0xb3, 0x1d, 0xaf, 0xbd, 0x3c, 0x78, 0xc7, 0x3e, 0x45, 0xd0, 0x6d, 0x3e,
  0xe0, 0x9c, 0x30, 0x3d, 0x75, 0x81, 0x9a, 0x3e, 0x4f, 0x66, 0x7f, 0xbe,
  0x73, 0xb9, 0xad, 0x3e, 0x86, 0xdf, 0xae, 0x3e, 0x11, 0x28, 0xd2, 0x3e,
  0x54, 0x77, 0xbf, 0x3e, 0x55, 0x17, 0x57, 0x3e, 0x38, 0x7e, 0x28, 0xbe,
  0x78, 0xfb, 0xb8, 0x3e, 0x00, 0xfc, 0xd6, 0xbd, 0x98, 0x26, 0xe6, 0x3e,
  0x64, 0x2f, 0xd2, 0xbe, 0x30, 0xe4, 0xbd, 0xbd, 0xfc, 0x97, 0x9e, 0xbe,
  0xf0, 0xb2, 0x10, 0xbe, 0x0d, 0x17, 0x19, 0x3f, 0x27, 0x4f, 0xf5, 0x3e,
  0xab, 0x4f, 0xde, 0x3e, 0x20, 0x0a, 0x07, 0xbf, 0x7d, 0x7c, 0xd5, 0xbe,
  0xcc, 0xe1, 0x06, 0x3f, 0xe4, 0x7b, 0xa5, 0x3d, 0x3a, 0xb6, 0x15, 0x3f,
  0x68, 0xbf, 0x5d, 0xbe, 0xe0, 0x10, 0x52, 0x3e, 0x80, 0x73, 0x02, 0x3d,
  0x18, 0x7b, 0x53, 0xbe, 0xf0, 0x75, 0x17, 0xbe, 0x88, 0x8b, 0xcd, 0xbe,
  0xd0, 0x98, 0xa2, 0xbe, 0xac, 0x91, 0xfc, 0xbe, 0x04, 0xc0, 0xe9, 0xbe,
  0x74, 0x29, 0xfa, 0xbe, 0xe0, 0x24, 0xaf, 0x3d, 0x50, 0x5b, 0xa0, 0x3d,
  0x28, 0x0d, 0xcd, 0xbe, 0x5c, 0x11, 0xe8, 0xbe, 0x30, 0x04, 0x06, 0x3e,
  0x20, 0x10, 0xe6, 0xbd, 0x69, 0x15, 0x0d, 0xbf, 0xec, 0x11, 0xcc, 0xbe,
  0x9a, 0xf4, 0x7b, 0xbe, 0x17, 0x50, 0xbd, 0x3e, 0x77, 0xdb, 0x44, 0x3f,
  0x15, 0xe9, 0xdb, 0x3e, 0xe8, 0xe5, 0x10, 0x3f, 0x7a, 0xa1, 0x01, 0x3f,
  0xf4, 0x30, 0xe3, 0x3e, 0x16, 0xbf, 0x61, 0xbd, 0x40, 0xe9, 0x99, 0x3e,
  0x61, 0x96, 0x67, 0x3d, 0x06, 0x2a, 0x89, 0x3a, 0xf8, 0x09, 0x18, 0x3f,
  0xb3, 0xa5, 0x30, 0x3f, 0x51, 0x79, 0x83, 0xbd, 0x28, 0x9a, 0x2d, 0x3e,
  0xa0, 0x07, 0x4b, 0xbd, 0x80, 0xee, 0x1d, 0x3d, 0x60, 0x18, 0xf9, 0xbe,
  0x88, 0xeb, 0x50, 0x3e, 0x98, 0x99, 0x0e, 0x3e, 0x64, 0xa3, 0xff, 0xbe,
  0x38, 0x28, 0x3e, 0xbe, 0xd3, 0xd2, 0x4c, 0xbe, 0x9c, 0x5d, 0xbb, 0x3e,
  0x98, 0x58, 0x8f, 0xbe, 0x94, 0xf3, 0x5f, 0x3e, 0x38, 0x64, 0x77, 0x3e,
  0x90, 0x6b, 0x08, 0x3e, 0xfb, 0x91, 0xc4, 0xbd, 0xb3, 0xfd, 0xd3, 0x3e,
  0x69, 0xd4, 0x0a, 0x3e, 0x0c, 0xb9, 0xbe, 0xbe, 0x89, 0xb3, 0xc2, 0xbe,
  0xcf, 0xf2, 0x08, 0x3f, 0xc7, 0x8c, 0x12, 0x3e, 0x6d, 0x96, 0x22, 0x3f,
  0x43, 0xff, 0x37, 0xbe, 0x02, 0xd3, 0xae, 0x3e, 0xe0, 0xdd, 0xe0, 0xbd,
  0xa4, 0xb5, 0xf6, 0xbe, 0x10, 0xb4, 0x42, 0xbe, 0x10, 0x50, 0x3e, 0xbe,
  0xe8, 0x4b, 0x5e, 0x3e, 0xe0, 0x52, 0x5c, 0x3d, 0x58, 0x22, 0xee, 0xbe,
  0x88, 0x9a, 0x7e, 0xbe, 0xce, 0xf5, 0xff, 0xff, 0x04, 0x00, 0x00, 0x00,
  0x00, 0x08, 0x00, 0x00, 0x5e, 0xaa, 0x9a, 0xbe, 0xd2, 0x35, 0xac, 0x3e,
  0xd8, 0x2a, 0xc0, 0xbd, 0x22, 0x5e, 0xfa, 0x3e, 0x97, 0xf1, 0x04, 0x3e,
  0x94, 0xf0, 0xba, 0x3e, 0x58, 0xd5, 0xed, 0x3d, 0x8b, 0x3d, 0x79, 0x3e,
  0xc8, 0xf3, 0x96, 0x3d, 0xb0, 0xad, 0xb0, 0xbd, 0x46, 0x9f, 0xa9, 0x3e,
  0xea, 0xd3, 0xc9, 0xbd, 0xf0, 0x96, 0x0f, 0x3d, 0xb3, 0xf7, 0xfe, 0x3e,
  0x70, 0x14, 0xdf, 0xbd, 0x02, 0xb9, 0xff, 0xbd, 0x74, 0x96, 0xe0, 0x3d,
  0x12, 0x58, 0x64, 0x3e, 0x38, 0xbc, 0x2d, 0xbe, 0x00, 0x5b, 0x8f, 0xba,
  0x16, 0x98, 0x64, 0x3e, 0x50, 0x99, 0x1b, 0xbe, 0x94, 0xfa, 0xad, 0x3d,
  0x08, 0xe8, 0x17, 0x3d, 0x20, 0xbb, 0x3c, 0xbe, 0x13, 0xeb, 0x34, 0xbe,
  0x60, 0x11, 0x9f, 0xbc, 0x38, 0xff, 0x67, 0xbd, 0x60, 0x16, 0x35, 0xbd,
  0xb0, 0xfc, 0xa5, 0xbe, 0x20, 0xc2, 0x0d, 0x3d, 0x51, 0xe0, 0x80, 0x3e,
  0x8d, 0xea, 0x3d, 0xbe, 0xc8, 0xc8, 0xe5, 0xbd, 0x70, 0x84, 0xb0, 0x3e,
  0x15, 0x6e, 0x55, 0x3d, 0x29, 0x1a, 0xf9, 0x3e, 0x5b, 0x1c, 0x64, 0xbd,
  0xf0, 0x21, 0x56, 0x3d, 0x63, 0x3f, 0x74, 0x3d, 0x10, 0xab, 0x68, 0xbd,
  0x9a, 0x62, 0x77, 0x3e, 0x8c, 0xdc, 0xe5, 0xbe, 0xa6, 0x95, 0x92, 0xbd,
  0x70, 0xfc, 0xfc, 0x3c, 0x16, 0x98, 0x99, 0xbe, 0x58, 0xbb, 0xaf, 0xbe,
  0xa2, 0x4b, 0x14, 0x3e, 0xa9, 0xa2, 0xf4, 0x3e, 0xb2, 0xba, 0x8c, 0xbd,
  0x5b, 0x1e, 0xf3, 0xbe, 0x8a, 0x64, 0x8f, 0x3e, 0x7b, 0x02, 0x14, 0xbe,
  0x2e, 0x36, 0x00, 0x3f, 0x34, 0xe3, 0xcd, 0x3d, 0xea, 0x37, 0x7c, 0x3e,
  0x16, 0xfc, 0xb0, 0xbe, 0xd3, 0x38, 0xa2, 0x3e, 0x9e, 0x9e, 0xaa, 0x3d,
  0xcb, 0xd5, 0x67, 0x3e, 0x28, 0x48, 0x80, 0xbd, 0xea, 0xfe, 0x8d, 0x3e,
  0xcd, 0xef, 0xe4, 0x3e, 0x24, 0xb0, 0x82, 0x3d, 0xc2, 0x5c, 0xc9, 0x3e,
  0x93, 0x0a, 0xe8, 0x3e, 0x2d, 0xe4, 0x0d, 0x3e, 0x71, 0xce, 0xab, 0xbe,
  0x75, 0x7d, 0x01, 0xbf, 0x0b, 0x39, 0x1b, 0x3e, 0xe0, 0x36, 0x4b, 0x3c,
  0xfd, 0x38, 0x5e, 0xbe, 0xaf, 0x0e, 0x1e, 0xbe, 0x1a, 0xa5, 0x1e, 0x3e,
  0x4c, 0x02, 0xfe, 0x3d, 0x9f, 0x78, 0x31, 0xbd, 0xd0, 0x4f, 0x3b, 0x3d,
  0x03, 0x5e, 0xb1, 0x3d, 0x6f, 0x28, 0x08, 0x3f, 0x4a, 0xc3, 0x3a, 0xbe,
  0x6a, 0x3c, 0xe0, 0x3e, 0xb0, 0x8d, 0x29, 0x3e, 0xdd, 0x16, 0x9d, 0x3c,
  0x33, 0x4b, 0x68, 0xbe, 0xd1, 0x94, 0x98, 0xbe, 0x95, 0x39, 0x7e, 0x3e,
  0xa2, 0x0a, 0x5a, 0x3e, 0x1a, 0x8f, 0xcf, 0xbe, 0x92, 0x25, 0x9f, 0xbe,
  0x60, 0x83, 0x5e, 0xbd, 0x41, 0xf3, 0xc3, 0x3e, 0xb8, 0xd2, 0x37, 0xbd,
  0x84, 0x9e, 0xaa, 0xbe, 0xa7, 0xb1, 0x89, 0x3e, 0x20, 0x35, 0xfa, 0x3e,
  0xa3, 0xf7, 0x94, 0xbe, 0x4a, 0x38, 0xd0, 0x3e, 0x19, 0x8c, 0xef, 0xbd,
  0x5c, 0x4a, 0x6f, 0xbd, 0x25, 0x39, 0x4f, 0xbe, 0x4c, 0x69, 0x5b, 0xbe,
  0x27, 0xf6, 0x99, 0xbd, 0xe0, 0xa4, 0x01, 0xbe, 0x5f, 0x2d, 0x9b, 0xbe,
  0x73, 0x60, 0xab, 0x3e, 0x70, 0x29, 0xd1, 0xbd, 0x99, 0x4f, 0xfc, 0x3e,
  0x65, 0x2f, 0xb2, 0x3e, 0x6c, 0x6a, 0x93, 0xbd, 0x6f, 0x39, 0x70, 0xbd,
  0xec, 0x0f, 0x91, 0x3e, 0x83, 0x9b, 0x90, 0x3e, 0x9b, 0x9d, 0xfa, 0x3c,
  0xbf, 0x30, 0xd7, 0xbd, 0x54, 0x61, 0x91, 0xbe, 0xa6, 0xc5, 0x40, 0x3e,
  0x66, 0x7a, 0xa7, 0x3e, 0x5d, 0xb7, 0x94, 0xbd, 0x67, 0x28, 0x98, 0x3e,
  0x22, 0xb0, 0x89, 0xbe, 0x32, 0x05, 0xf3, 0xbd, 0xf0, 0x3b, 0xae, 0xbc,
  0xa8, 0x1a, 0xd2, 0x3d, 0x32, 0x5c, 0x72, 0x3c, 0xd0, 0x66, 0xb3, 0x3d,
  0xea, 0x7e, 0xbe, 0xbd, 0x1e, 0x0d, 0xf0, 0xbd, 0xc8, 0xb0, 0x83, 0x3d,
  0x8b, 0xe7, 0xe2, 0xbd, 0x08, 0xa8, 0xf2, 0xbd, 0x17, 0x6e, 0x11, 0x3f,
  0xd4, 0xa4, 0xbc, 0xbe, 0x22, 0x17, 0x07, 0x3f, 0x7a, 0x94, 0xc1, 0x3e,
  0x1b, 0xbb, 0xa2, 0x3e, 0x5d, 0x1e, 0x18, 0x3e, 0x8a, 0x9b, 0x03, 0x3e,
  0x40, 0x79, 0x85, 0xbd, 0xf7, 0x3c, 0x6f, 0xbb, 0x48, 0xfc, 0xa6, 0xbd,
  0xb0, 0x03, 0x40, 0x3d, 0x07, 0xdf, 0x01, 0xbf, 0xa2, 0xf0, 0xd2, 0xbe,
  0x81, 0x2a, 0x97, 0x3e, 0xf3, 0x15, 0xc9, 0x3e, 0xec, 0x6d, 0x0c, 0x3d,
  0xe1, 0xcb, 0x34, 0xbe, 0x38, 0x59, 0x7a, 0xbe, 0x58, 0xb8, 0xac, 0x3c,
  0xa3, 0x3d, 0xa1, 0x3e, 0xc7, 0x7e, 0xa9, 0x3e, 0xb0, 0xb3, 0x3b, 0x3d,
  0x00, 0x7d, 0x62, 0xbc, 0xbd, 0xce, 0x9a, 0x3e, 0xaf, 0x64, 0xcc, 0x3e,
  0xf6, 0x0b, 0x24, 0xbe, 0x00, 0x90, 0x69, 0x3a, 0xe6, 0x2b, 0x96, 0xbe,
  0x6f, 0x8a, 0x00, 0xbc, 0xf1, 0x78, 0x02, 0xbe, 0xed, 0x3a, 0x11, 0x3f,
  0xc7, 0xd8, 0xf5, 0x3e, 0xa1, 0x56, 0x8e, 0xbe, 0x3e, 0xa2, 0x2a, 0xbe,
  0x49, 0xde, 0x87, 0xbe, 0x7c, 0xf8, 0xa5, 0x3e, 0x7b, 0xf3, 0x90, 0x3e,
  0x32, 0x62, 0x78, 0x3d, 0x34, 0x84, 0xdb, 0xbd, 0xfe, 0x4e, 0x54, 0x3e,
  0xd0, 0xd7, 0xe0, 0x3e, 0xe1, 0x00, 0x44, 0x3e, 0x70, 0x12, 0xa3, 0xbd,
  0x54, 0xa7, 0x16, 0x3d, 0x91, 0xad, 0x16, 0x3e, 0x4e, 0xcf, 0x93, 0xbe,
  0x68, 0xdf, 0x5e, 0xbe, 0xcc, 0x27, 0x97, 0x3e, 0xd1, 0xb7, 0xfc, 0x3d,
  0xba, 0x9b, 0x5a, 0x3e, 0xcb, 0x51, 0x16, 0xbd, 0x37, 0xcb, 0x94, 0xbe,
  0x6a, 0x88, 0xf6, 0xbd, 0x51, 0x25, 0x79, 0xbd, 0x14, 0x12, 0x1b, 0xbe,
  0x6d, 0x51, 0x5f, 0xbe, 0x37, 0x6c, 0x9a, 0xbe, 0x70, 0x47, 0x21, 0xbd,
  0x4f, 0xaa, 0x96, 0xbe, 0x67, 0xff, 0xf3, 0xbc, 0x78, 0x5d, 0x7e, 0x3d,
  0xcc, 0xd4, 0xe2, 0x3d, 0xf1, 0x42, 0x98, 0x3e, 0xda, 0xcb, 0x8e, 0xbe,
  0xf8, 0x94, 0x34, 0xbd, 0x98, 0x0c, 0x5b, 0xbe, 0xb2, 0x97, 0x28, 0x3e,
  0x16, 0xd6, 0x12, 0x3e, 0x38, 0xe9, 0x4a, 0x3d, 0xf6, 0xb9, 0x71, 0xbe,
  0x94, 0x4b, 0x12, 0x3e, 0x08, 0xf4, 0xac, 0xbe, 0xb0, 0x27, 0xcb, 0x3c,
  0xcd, 0xc2, 0xb2, 0xbe, 0x27, 0xcd, 0xa8, 0xbe, 0x91, 0x7d, 0x33, 0xbe,
  0xa4, 0x67, 0xfc, 0xbd, 0x4d, 0x62, 0xb4, 0x3e, 0x7e, 0xe6, 0x35, 0x3e,
  0xb8, 0x71, 0x90, 0xbe, 0xf6, 0x9d, 0xb3, 0xbe, 0x87, 0x1f, 0x9d, 0x3e,
  0xba, 0x40, 0x73, 0x3e, 0x85, 0xb9, 0xa1, 0xbe, 0x75, 0x1d, 0x8f, 0x3e,
  0xb9, 0x97, 0x1b, 0xbe, 0xec, 0xb3, 0xe2, 0xbd, 0xc0, 0xd2, 0xef, 0xbc,
  0x24, 0x7d, 0xc1, 0xbd, 0x4e, 0xc8, 0x92, 0xbe, 0x41, 0xf2, 0xb4, 0x3e,
  0x90, 0x63, 0x54, 0xbd, 0x8a, 0x9b, 0x7d, 0xbe, 0x0a, 0xed, 0x23, 0x3e,
  0x70, 0xe0, 0x46, 0xbe, 0xf0, 0xce, 0xaa, 0xbc, 0x00, 0x94, 0x1f, 0x3c,
  0xba, 0x43, 0x5f, 0x3e, 0xc7, 0xff, 0x97, 0xbe, 0x3f, 0x6b, 0xb1, 0xbe,
  0xab, 0x1a, 0x18, 0xbe, 0x90, 0xc1, 0x76, 0xbe, 0x4d, 0x09, 0x8b, 0x3e,
  0xd0, 0x5c, 0xef, 0x3d, 0x80, 0x3c, 0x9f, 0x3c, 0xfe, 0x9e, 0x67, 0xbe,
  0x73, 0xa5, 0x9e, 0x3e, 0xcb, 0x72, 0x94, 0x3e, 0x23, 0x43, 0x01, 0xbe,
  0x44, 0x17, 0x0f, 0x3e, 0xe2, 0xe0, 0x92, 0x3e, 0xb9, 0xf2, 0xf1, 0xbe,
  0x18, 0x1e, 0x7a, 0x3e, 0x92, 0x8d, 0xba, 0x3d, 0x78, 0x96, 0xa7, 0x3e,
  0x62, 0x3a, 0x7f, 0xbe, 0xae, 0x62, 0xa1, 0xbe, 0x98, 0xdf, 0xc1, 0xbd,
  0xbf, 0x35, 0x98, 0x3e, 0xee, 0x95, 0x35, 0x3e, 0x53, 0x07, 0x86, 0xbe,
  0xcf, 0x07, 0xa4, 0x3e, 0x82, 0x18, 0x6b, 0x3e, 0xa6, 0x25, 0xde, 0x3d,
  0x26, 0x91, 0x93, 0xbe, 0x26, 0xe5, 0xa2, 0xbe, 0xb2, 0xaa, 0xdc, 0x3d,
  0x5c, 0xc9, 0x04, 0x3d, 0x97, 0x63, 0xcd, 0x3e, 0xf6, 0x7a, 0xac, 0x3d,
  0xd0, 0xdd, 0x0b, 0xbe, 0x47, 0x3f, 0xbb, 0xbe, 0xf0, 0xe5, 0xec, 0xbd,
  0x4d, 0x92, 0x87, 0x3e, 0xb0, 0x55, 0x4a, 0x3d, 0x50, 0x05, 0xa1, 0x3d,
  0x91, 0x33, 0x33, 0x3e, 0xd5, 0x35, 0x7c, 0x3e, 0xf0, 0x20, 0x7a, 0x3d,
  0x37, 0xe8, 0x08, 0xbe, 0xbb, 0xc9, 0xe9, 0xbe, 0xb1, 0x57, 0xa4, 0xbe,
  0xba, 0xca, 0x09, 0x3f, 0xd2, 0x2f, 0x95, 0xbe, 0xb9, 0xcb, 0xb8, 0x3e,
  0xbd, 0xe3, 0x88, 0xbe, 0x87, 0x65, 0x61, 0xbe, 0xaf, 0x4f, 0x1e, 0x3e,
  0x90, 0xd9, 0xa2, 0xbd, 0x33, 0x37, 0x73, 0x3c, 0x3c, 0x12, 0xc9, 0x3d,
  0xb7, 0xca, 0x64, 0xbe, 0x25, 0x8d, 0x7b, 0xbe, 0xd1, 0x2a, 0x4e, 0x3e,
  0xca, 0xc5, 0x07, 0x3e, 0x31, 0x24, 0xe3, 0xbd, 0x07, 0x7d, 0x42, 0x3e,
  0x66, 0xea, 0x4b, 0xbe, 0x0c, 0x54, 0xc9, 0xbd, 0xf6, 0xab, 0xcf, 0x3e,
  0x3e, 0xbb, 0xf7, 0xbe, 0xc9, 0x62, 0xfd, 0x3e, 0xeb, 0x6c, 0x96, 0x3e,
  0xb9, 0x5f, 0x10, 0x3e, 0x18, 0x9d, 0x03, 0xbd, 0x6a, 0xc6, 0x41, 0xbe,
  0xbc, 0x87, 0xfa, 0xbd, 0x63, 0x9b, 0x31, 0xbe, 0x97, 0x80, 0x20, 0x3e,
  0x3c, 0xbe, 0xc9, 0x3e, 0x60, 0x57, 0x19, 0x3d, 0x7e, 0x48, 0x0e, 0x3f,
  0x47, 0xcb, 0x9a, 0x3e, 0xe4, 0xc4, 0x9b, 0x3d, 0xe0, 0x6c, 0xe1, 0x3e,
  0xcd, 0x05, 0x6f, 0xbc, 0xfc, 0x6f, 0xf5, 0x3e, 0x6b, 0x43, 0x4f, 0xbe,
  0x0f, 0x61, 0xeb, 0x3d, 0xf5, 0x12, 0x60, 0xbe, 0xe2, 0x37, 0x1c, 0xbe,
  0x25, 0xf7, 0x39, 0x3e, 0x95, 0x5d, 0x9c, 0x3e, 0xe7, 0x61, 0xa1, 0x3e,
  0xba, 0x07, 0xac, 0xbe, 0x4c, 0x01, 0xd9, 0x3d, 0x62, 0x24, 0x26, 0x3e,
  0xe1, 0x50, 0x06, 0x3e, 0xe5, 0x38, 0xf3, 0xbe, 0x66, 0x3b, 0x7c, 0xbe,
  0x58, 0x63, 0x1e, 0xbd, 0xee, 0x87, 0xa0, 0xbe, 0x00, 0x53, 0xab, 0xbb,
  0xf6, 0xb2, 0xad, 0xbe, 0x8a, 0xc2, 0x28, 0x3e, 0xbc, 0xa3, 0x25, 0xbe,
  0x0b, 0x91, 0x98, 0xbe, 0xa2, 0x8d, 0x15, 0xbe, 0xaf, 0xc8, 0x14, 0xbe,
  0xaa, 0x01, 0x9a, 0xbe, 0x6b, 0x62, 0x29, 0xbe, 0x66, 0x6e, 0x06, 0xbe,
  0xf0, 0x68, 0x6b, 0x3d, 0x24, 0x20, 0x2a, 0xbe, 0xb0, 0xa6, 0x66, 0x3d,
  0x77, 0x78, 0x08, 0xbe, 0x15, 0xa8, 0xf1, 0xbc, 0x07, 0x0c, 0x4b, 0xbe,
  0x28, 0xa4, 0x5a, 0xbd, 0x5a, 0x07, 0xbb, 0x3e, 0x12, 0x3b, 0xd4, 0xbd,
  0x50, 0x84, 0x8b, 0x3e, 0x90, 0xcb, 0x56, 0xbe, 0x7d, 0x9f, 0x88, 0x3c,
  0x8a, 0xcd, 0xfe, 0xbd, 0x30, 0x39, 0x89, 0xbe, 0x10, 0xa0, 0x2a, 0xbd,
  0x4c, 0xe3, 0x5d, 0x3e, 0x05, 0x6b, 0x8e, 0x3e, 0xb7, 0x62, 0x6d, 0xbd,
  0xda, 0x56, 0x98, 0x3e, 0xec, 0x3e, 0x65, 0xbe, 0xaa, 0xcc, 0xeb, 0xbe,
  0x33, 0x06, 0x21, 0x3d, 0xfa, 0xb9, 0xd7, 0x3e, 0x51, 0x82, 0xd7, 0x3e,
  0x40, 0xfd, 0xd2, 0x3e, 0x1b, 0xa8, 0xca, 0x3d, 0x0f, 0xf7, 0x9b, 0xbe,
  0x17, 0x40, 0x95, 0x3e, 0xda, 0xfa, 0xa9, 0xbe, 0xd8, 0xd4, 0x73, 0xbe,
  0x5f, 0xe1, 0xdf, 0xbc, 0xdd, 0x7f, 0x85, 0x3e, 0xf0, 0xe5, 0xd7, 0x3d,
  0x5a, 0x93, 0xd8, 0x3d, 0x45, 0xd3, 0xf1, 0xbb, 0xfc, 0x29, 0xb8, 0xbd,
  0x7f, 0x09, 0x9e, 0xbe, 0x16, 0x40, 0x04, 0xbf, 0x20, 0x4a, 0x13, 0x3f,
  0x4d, 0x19, 0xe7, 0xbe, 0x5a, 0xb5, 0x01, 0x3f, 0x19, 0x51, 0x49, 0xbd,
  0x63, 0x71, 0x92, 0x3e, 0x19, 0x75, 0xbc, 0x3d, 0x53, 0x5f, 0x85, 0xbe,
  0x1c, 0xcf, 0x9e, 0x3d, 0xb0, 0xa8, 0x17, 0xbe, 0xc5, 0x22, 0x91, 0x3e,
  0xc4, 0xf1, 0xf8, 0xbd, 0xec, 0xfa, 0xa4, 0xbe, 0xe0, 0xd9, 0x2d, 0xbe,
  0x03, 0x9a, 0xb3, 0x3e, 0xf8, 0xb8, 0xed, 0xbd, 0xd2, 0x42, 0x14, 0xbd,
  0xa6, 0xc3, 0xfb, 0x3e, 0xb5, 0x60, 0x62, 0x3e, 0x3f, 0x68, 0xfa, 0x3e,
  0x8a, 0x2a, 0x8f, 0x3e, 0x20, 0xc9, 0x64, 0x3d, 0x10, 0x5a, 0x5d, 0x3e,
  0x80, 0x8b, 0xe7, 0x3c, 0x32, 0x4c, 0x5d, 0x3e, 0x9f, 0x26, 0xf1, 0xbd,
  0x5d, 0xd0, 0x92, 0x3e, 0xf0, 0x0f, 0x81, 0xbc, 0x80, 0x6b, 0xa0, 0xbe,
  0x5d, 0x66, 0x7f, 0xbe, 0xf4, 0x56, 0xe0, 0x3d, 0x6c, 0xa7, 0x38, 0x3e,
  0x20, 0x7a, 0x07, 0x3d, 0x72, 0xef, 0x1a, 0x3d, 0xa8, 0x77, 0xf8, 0x3d,
  0xd6, 0x57, 0x23, 0xbe, 0x9a, 0x64, 0x00, 0x3e, 0xc2, 0xb4, 0x88, 0xbe,
  0x1e, 0x5c, 0x28, 0xbe, 0x58, 0xe2, 0xc6, 0x3d, 0x60, 0xef, 0x6f, 0xbd,
  0x2d, 0xd3, 0x7b, 0xbe, 0x26, 0xfc, 0x18, 0xbc, 0x68, 0x76, 0x91, 0x3d,
  0x50, 0xcc, 0x9c, 0xbc, 0x79, 0xa8, 0x2c, 0xbd, 0x78, 0x2d, 0x95, 0x3d,
  0xc1, 0x70, 0x01, 0x3e, 0x34, 0x79, 0xa1, 0xbe, 0x1d, 0xde, 0x85, 0xbe,
  0x04, 0xef, 0x05, 0xbe, 0xa2, 0x34, 0x88, 0x3d, 0xee, 0xae, 0x6a, 0x3e,
  0x20, 0xc7, 0xc6, 0x3c, 0x99, 0x1d, 0x35, 0xbe, 0x85, 0x5c, 0x46, 0xbe,
  0xc0, 0x3e, 0x62, 0xbc, 0x16, 0xa7, 0xcd, 0x3d, 0x64, 0xd0, 0xbf, 0xbc,
  0xc0, 0x60, 0xe1, 0xbc, 0x67, 0x77, 0xac, 0x3c, 0x8b, 0x84, 0x55, 0xbe,
  0x52, 0x41, 0x55, 0x3e, 0xfa, 0xb2, 0xd6, 0x3e, 0x4f, 0x83, 0x01, 0x3f,
  0x49, 0x97, 0x93, 0xbe, 0x80, 0x88, 0xfd, 0x3e, 0x60, 0xd2, 0x00, 0xbe,
  0x91, 0x73, 0xb6, 0xbd, 0xd3, 0xf7, 0x66, 0xbe, 0x73, 0xba, 0xe2, 0x3e,
  0xdd, 0x91, 0x4a, 0xbe, 0xcc, 0xc5, 0xfb, 0xbd, 0x68, 0xff, 0xdc, 0x3e,
  0x0d, 0xee, 0xa3, 0xbc, 0xf0, 0x64, 0xfc, 0x3d, 0xb8, 0xab, 0xf3, 0x3e,
  0x45, 0x83, 0x5c, 0x3e, 0x8c, 0xf4, 0x9f, 0x3d, 0x36, 0xa7, 0x47, 0xbe,
  0xfd, 0x58, 0x29, 0xbd, 0x2f, 0x81, 0x9b, 0xbe, 0xd9, 0xde, 0xcb, 0x3e,
  0xbb, 0xa4, 0xea, 0x3d, 0x31, 0x5a, 0x66, 0x3d, 0xce, 0x0a, 0x1f, 0x3e,
  0x68, 0xe8, 0x8b, 0x3e, 0xbc, 0x6e, 0x5a, 0xbe, 0x0a, 0x0d, 0x6b, 0x3e,
  0x30, 0x23, 0xd4, 0x3c, 0x7a, 0xf8, 0xac, 0x3e, 0x75, 0x54, 0x84, 0xbe,
  0xab, 0x36, 0xbd, 0xbd, 0x9e, 0xb4, 0xfa, 0x3d, 0x27, 0x15, 0xa3, 0x3e,
  0xc8, 0x9f, 0x76, 0xbd, 0xb8, 0xef, 0x12, 0x3e, 0x88, 0xbd, 0x17, 0xbd,
  0xec, 0x57, 0xbb, 0x3d, 0x34, 0x56, 0x1b, 0xbe, 0xb2, 0x73, 0x6d, 0xbe,
  0x00, 0x60, 0x55, 0xbd, 0x9a, 0xa1, 0xf3, 0xbd, 0x3c, 0x35, 0x8c, 0xbe,
  0xc8, 0x9c, 0x56, 0xbe, 0x57, 0xcf, 0x06, 0xbe, 0x64, 0xac, 0xcc, 0xbd,
  0x1c, 0x28, 0x5e, 0xbe, 0x8a, 0x11, 0x5f, 0x3e, 0xe0, 0xa4, 0x7e, 0xbd,
  0x00, 0x6a, 0xe4, 0x3c, 0xb9, 0x3b, 0x9f, 0xbe, 0xc3, 0xea, 0x00, 0x3b,
  0xd6, 0x74, 0xc5, 0x3c, 0xc9, 0xe1, 0xe0, 0xbe, 0x79, 0x26, 0xb2, 0x3e,
  0x98, 0xac, 0x14, 0x3e, 0x00, 0x74, 0x18, 0xbb, 0x66, 0x1e, 0xa8, 0xbd,
  0x86, 0x36, 0x5c, 0x3e, 0x8a, 0x6d, 0x0a, 0xbe, 0xaa, 0x53, 0x79, 0xbe,
  0x14, 0xd7, 0xeb, 0x3e, 0xf6, 0x13, 0xa1, 0xbe, 0xfb, 0x7d, 0x05, 0xbe,
  0x7e, 0xaf, 0x95, 0xbe, 0x90, 0x59, 0xa4, 0x3c, 0x90, 0xfc, 0x76, 0xbd,
  0x2a, 0x9f, 0x05, 0x3e, 0x6c, 0xa5, 0xb6, 0x3e, 0xc3, 0x75, 0x50, 0x3d,
  0x83, 0x44, 0xaf, 0x3e, 0x49, 0xa2, 0x2b, 0x3d, 0xf4, 0x98, 0x18, 0xbe,
  0xd6, 0xf5, 0x29, 0x3e, 0x28, 0xf4, 0x45, 0xbe, 0x0b, 0xad, 0xa0, 0xbe,
  0x66, 0x12, 0xc3, 0xbe, 0x86, 0x33, 0xbd, 0x3e, 0xe0, 0xc0, 0x7c, 0xbd,
  0xf8, 0xac, 0xd5, 0xbe, 0x18, 0x73, 0x15, 0xbd, 0x00, 0xd5, 0xeb, 0x3d,
  0xda, 0xfd, 0xff, 0xff, 0x04, 0x00, 0x00, 0x00, 0x80, 0x01, 0x00, 0x00,
  0x92, 0x3c, 0x84, 0x3e, 0x10, 0x17, 0xb0, 0xbe, 0x3c, 0x44, 0x1c, 0xbf,
  0xd8, 0x35, 0x24, 0x3e, 0x14, 0x11, 0x06, 0xbf, 0xb1, 0x7b, 0x0f, 0xbf,
  0xa3, 0x23, 0xab, 0xbe, 0x9b, 0x67, 0x0b, 0xbe, 0xf8, 0xab, 0xea, 0xbe,
  0x6c, 0x6e, 0x8b, 0xbe, 0xb2, 0x53, 0xd8, 0xbd, 0x6a, 0x54, 0x9a, 0xbe,
  0x8f, 0xa1, 0x8d, 0x3e, 0x50, 0x72, 0xfe, 0x3c, 0x0a, 0x07, 0x11, 0xbe,
  0xfe, 0x2d, 0x15, 0xbf, 0xa6, 0x0e, 0xd9, 0xbe, 0x09, 0xc8, 0xcc, 0xbe,
  0xe4, 0x10, 0x00, 0x3d, 0xe4, 0xfb, 0xd0, 0xbe, 0xcf, 0x09, 0xcf, 0x3e,
  0x86, 0x07, 0x4c, 0x3e, 0x4e, 0xe4, 0x06, 0x3f, 0xab, 0x82, 0xd3, 0xbe,
  0x49, 0x1d, 0x3b, 0x3d, 0x0a, 0x83, 0x51, 0xbe, 0x65, 0xd1, 0x67, 0x3e,
  0x17, 0xf0, 0x94, 0x3b, 0xf0, 0xc0, 0xbc, 0x3e, 0xc0, 0xc5, 0x6c, 0x3c,
  0x01, 0x44, 0x23, 0xbf, 0x72, 0xd3, 0x08, 0x3e, 0xdc, 0x7c, 0x1b, 0xbf,
  0x03, 0x24, 0xb6, 0x3e, 0x8b, 0x44, 0xbd, 0x3e, 0x5c, 0xf0, 0xfb, 0xbe,
  0x0f, 0xe2, 0x19, 0xbf, 0x42, 0x94, 0xc2, 0xbe, 0x1b, 0x06, 0xd1, 0xbd,
  0x30, 0xe6, 0xa3, 0x3e, 0x70, 0x6f, 0x3e, 0x3e, 0x6f, 0xe2, 0xb8, 0xbd,
  0xe5, 0x85, 0xdb, 0xbe, 0x12, 0x2c, 0x1f, 0xbe, 0x5a, 0x66, 0x06, 0x3e,
  0x70, 0xda, 0xc5, 0xbc, 0x31, 0x3c, 0x7e, 0xbe, 0x7a, 0xa4, 0xff, 0x3e,
  0x44, 0x34, 0xa3, 0x3d, 0x0d, 0x0a, 0xb8, 0x3e, 0x1a, 0xe1, 0xf8, 0xbe,
  0xaf, 0x5d, 0xd9, 0x3e, 0xcc, 0x14, 0x99, 0xbe, 0xd9, 0xed, 0x9e, 0xbe,
  0x26, 0x8b, 0xab, 0x3e, 0x06, 0x0d, 0xcc, 0x3e, 0xaf, 0x37, 0x3d, 0x3e,
  0x38, 0x39, 0x7c, 0xbe, 0xed, 0x04, 0x9d, 0x3e, 0xa1, 0x07, 0x1e, 0xbf,
  0x88, 0xe5, 0x3c, 0xbe, 0xcd, 0xcc, 0xc6, 0x3e, 0x37, 0xb4, 0xc2, 0x3e,
  0x0a, 0x4e, 0x10, 0x3f, 0x7a, 0xc3, 0xbf, 0xbe, 0x80, 0xe2, 0x0a, 0x3b,
  0xb3, 0xc7, 0x48, 0xbc, 0x36, 0x75, 0x81, 0x3e, 0x88, 0x42, 0xeb, 0x3e,
  0xfe, 0x5b, 0x98, 0x3e, 0xca, 0xab, 0x71, 0x3e, 0x4d, 0x18, 0xcb, 0xbd,
  0x3f, 0x09, 0x29, 0xbf, 0x22, 0xc6, 0xf8, 0x3e, 0x40, 0xe6, 0x09, 0x3f,
  0x38, 0xb5, 0xa2, 0x3e, 0xb6, 0x1d, 0x36, 0xbe, 0xe7, 0x0c, 0xcf, 0xbe,
  0x9a, 0x0f, 0x66, 0x3e, 0x61, 0xcd, 0xd9, 0xbe, 0xfe, 0x83, 0x3f, 0xbe,
  0x45, 0x05, 0x7b, 0x3e, 0xc1, 0xd4, 0x1a, 0xbb, 0x3e, 0xd5, 0x03, 0xbe,
  0x41, 0xd4, 0xb7, 0x3e, 0x8a, 0x3e, 0x43, 0xbe, 0x13, 0x42, 0xe1, 0xbe,
  0x92, 0xed, 0x89, 0xbe, 0x8c, 0x08, 0xff, 0xbe, 0x6a, 0x18, 0xcf, 0xbe,
  0x4a, 0x33, 0x1f, 0xbc, 0xc7, 0x95, 0x53, 0x3d, 0x1a, 0x27, 0x8c, 0xbe,
  0xc3, 0xa4, 0x81, 0x3e, 0xdc, 0xf4, 0xa0, 0xbe, 0x47, 0x4b, 0x25, 0xbf,
  0xf0, 0xf8, 0xff, 0xff, 0xf4, 0xf8, 0xff, 0xff, 0x0f, 0x00, 0x00, 0x00,
  0x4d, 0x4c, 0x49, 0x52, 0x20, 0x43, 0x6f, 0x6e, 0x76, 0x65, 0x72, 0x74,
  0x65, 0x64, 0x2e, 0x00, 0x01, 0x00, 0x00, 0x00, 0x14, 0x00, 0x00, 0x00,
  0x00, 0x00, 0x0e, 0x00, 0x18, 0x00, 0x14, 0x00, 0x10, 0x00, 0x0c, 0x00,
  0x08, 0x00, 0x04, 0x00, 0x0e, 0x00, 0x00, 0x00, 0x14, 0x00, 0x00, 0x00,
  0x1c, 0x00, 0x00, 0x00, 0x5c, 0x01, 0x00, 0x00, 0x60, 0x01, 0x00, 0x00,
  0x64, 0x01, 0x00, 0x00, 0x04, 0x00, 0x00, 0x00, 0x6d, 0x61, 0x69, 0x6e,
  0x00, 0x00, 0x00, 0x00, 0x05, 0x00, 0x00, 0x00, 0x04, 0x01, 0x00, 0x00,
  0xbc, 0x00, 0x00, 0x00, 0x84, 0x00, 0x00, 0x00, 0x50, 0x00, 0x00, 0x00,
  0x14, 0x00, 0x00, 0x00, 0x00, 0x00, 0x0e, 0x00, 0x1a, 0x00, 0x14, 0x00,
  0x10, 0x00, 0x0c, 0x00, 0x0b, 0x00, 0x04, 0x00, 0x0e, 0x00, 0x00, 0x00,
  0x1c, 0x00, 0x00, 0x00, 0x00, 0x00, 0x00, 0x09, 0x1c, 0x00, 0x00, 0x00,
  0x20, 0x00, 0x00, 0x00, 0x01, 0x00, 0x00, 0x00, 0x00, 0x00, 0x06, 0x00,
  0x08, 0x00, 0x04, 0x00, 0x06, 0x00, 0x00, 0x00, 0x00, 0x00, 0x80, 0x3f,
  0x01, 0x00, 0x00, 0x00, 0x0d, 0x00, 0x00, 0x00, 0x01, 0x00, 0x00, 0x00,
  0x0c, 0x00, 0x00, 0x00, 0x66, 0xff, 0xff, 0xff, 0x10, 0x00, 0x00, 0x00,
  0x00, 0x00, 0x00, 0x08, 0x0c, 0x00, 0x00, 0x00, 0x10, 0x00, 0x00, 0x00,
  0xbc, 0xf9, 0xff, 0xff, 0x01, 0x00, 0x00, 0x00, 0x0c, 0x00, 0x00, 0x00,
  0x03, 0x00, 0x00, 0x00, 0x0b, 0x00, 0x00, 0x00, 0x01, 0x00, 0x00, 0x00,
  0x04, 0x00, 0x00, 0x00, 0x96, 0xff, 0xff, 0xff, 0x10, 0x00, 0x00, 0x00,
  0x00, 0x00, 0x00, 0x08, 0x10, 0x00, 0x00, 0x00, 0x14, 0x00, 0x00, 0x00,
  0x86, 0xff, 0xff, 0xff, 0x00, 0x00, 0x00, 0x01, 0x01, 0x00, 0x00, 0x00,
  0x0b, 0x00, 0x00, 0x00, 0x03, 0x00, 0x00, 0x00, 0x0a, 0x00, 0x00, 0x00,
  0x02, 0x00, 0x00, 0x00, 0x05, 0x00, 0x00, 0x00, 0xca, 0xff, 0xff, 0xff,
  0x10, 0x00, 0x00, 0x00, 0x00, 0x00, 0x00, 0x08, 0x10, 0x00, 0x00, 0x00,
  0x14, 0x00, 0x00, 0x00, 0xba, 0xff, 0xff, 0xff, 0x00, 0x00, 0x00, 0x01,
  0x01, 0x00, 0x00, 0x00, 0x0a, 0x00, 0x00, 0x00, 0x03, 0x00, 0x00, 0x00,
  0x09, 0x00, 0x00, 0x00, 0x03, 0x00, 0x00, 0x00, 0x06, 0x00, 0x00, 0x00,
  0x00, 0x00, 0x0e, 0x00, 0x16, 0x00, 0x00, 0x00, 0x10, 0x00, 0x0c, 0x00,
  0x0b, 0x00, 0x04, 0x00, 0x0e, 0x00, 0x00, 0x00, 0x18, 0x00, 0x00, 0x00,
  0x00, 0x00, 0x00, 0x08, 0x18, 0x00, 0x00, 0x00, 0x1c, 0x00, 0x00, 0x00,
  0x00, 0x00, 0x06, 0x00, 0x08, 0x00, 0x07, 0x00, 0x06, 0x00, 0x00, 0x00,
  0x00, 0x00, 0x00, 0x01, 0x01, 0x00, 0x00, 0x00, 0x09, 0x00, 0x00, 0x00,
  0x03, 0x00, 0x00, 0x00, 0x00, 0x00, 0x00, 0x00, 0x08, 0x00, 0x00, 0x00,
  0x07, 0x00, 0x00, 0x00, 0x01, 0x00, 0x00, 0x00, 0x0d, 0x00, 0x00, 0x00,
  0x01, 0x00, 0x00, 0x00, 0x00, 0x00, 0x00, 0x00, 0x0e, 0x00, 0x00, 0x00,
  0x38, 0x05, 0x00, 0x00, 0xe0, 0x04, 0x00, 0x00, 0x88, 0x04, 0x00, 0x00,
  0x48, 0x04, 0x00, 0x00, 0x0c, 0x04, 0x00, 0x00, 0xd0, 0x03, 0x00, 0x00,
  0x94, 0x03, 0x00, 0x00, 0x34, 0x03, 0x00, 0x00, 0xe0, 0x02, 0x00, 0x00,
  0x38, 0x02, 0x00, 0x00, 0x90, 0x01, 0x00, 0x00, 0xe8, 0x00, 0x00, 0x00,
  0x60, 0x00, 0x00, 0x00, 0x04, 0x00, 0x00, 0x00, 0x16, 0xfb, 0xff, 0xff,
  0x00, 0x00, 0x00, 0x01, 0x14, 0x00, 0x00, 0x00, 0x1c, 0x00, 0x00, 0x00,
  0x1c, 0x00, 0x00, 0x00, 0x0e, 0x00, 0x00, 0x00, 0x34, 0x00, 0x00, 0x00,
  0x02, 0x00, 0x00, 0x00, 0xff, 0xff, 0xff, 0xff, 0x03, 0x00, 0x00, 0x00,
  0x00, 0xfb, 0xff, 0xff, 0x1b, 0x00, 0x00, 0x00, 0x53, 0x74, 0x61, 0x74,
  0x65, 0x66, 0x75, 0x6c, 0x50, 0x61, 0x72, 0x74, 0x69, 0x74, 0x69, 0x6f,
  0x6e, 0x65, 0x64, 0x43, 0x61, 0x6c, 0x6c, 0x5f, 0x31, 0x3a, 0x30, 0x00,
  0x02, 0x00, 0x00, 0x00, 0x01, 0x00, 0x00, 0x00, 0x03, 0x00, 0x00, 0x00,
  0x6e, 0xfb, 0xff, 0xff, 0x00, 0x00, 0x00, 0x01, 0x14, 0x00, 0x00, 0x00,
  0x1c, 0x00, 0x00, 0x00, 0x1c, 0x00, 0x00, 0x00, 0x0d, 0x00, 0x00, 0x00,
  0x60, 0x00, 0x00, 0x00, 0x02, 0x00, 0x00, 0x00, 0xff, 0xff, 0xff, 0xff,
  0x03, 0x00, 0x00, 0x00, 0x58, 0xfb, 0xff, 0xff, 0x44, 0x00, 0x00, 0x00,
  0x73, 0x65, 0x71, 0x75, 0x65, 0x6e, 0x74, 0x69, 0x61, 0x6c, 0x5f, 0x31,
  0x31, 0x5f, 0x31, 0x2f, 0x64, 0x65, 0x6e, 0x73, 0x65, 0x5f, 0x34, 0x39,
  0x5f, 0x31, 0x2f, 0x4d, 0x61, 0x74, 0x4d, 0x75, 0x6c, 0x3b, 0x73, 0x65,
  0x71, 0x75, 0x65, 0x6e, 0x74, 0x69, 0x61, 0x6c, 0x5f, 0x31, 0x31, 0x5f,
  0x31, 0x2f, 0x64, 0x65, 0x6e, 0x73, 0x65, 0x5f, 0x34, 0x39, 0x5f, 0x31,
  0x2f, 0x42, 0x69, 0x61, 0x73, 0x41, 0x64, 0x64, 0x00, 0x00, 0x00, 0x00,
  0x02, 0x00, 0x00, 0x00, 0x01, 0x00, 0x00, 0x00, 0x03, 0x00, 0x00, 0x00,
  0xf2, 0xfb, 0xff, 0xff, 0x00, 0x00, 0x00, 0x01, 0x14, 0x00, 0x00, 0x00,
  0x1c, 0x00, 0x00, 0x00, 0x1c, 0x00, 0x00, 0x00, 0x0c, 0x00, 0x00, 0x00,
  0x80, 0x00, 0x00, 0x00, 0x02, 0x00, 0x00, 0x00, 0xff, 0xff, 0xff, 0xff,
  0x20, 0x00, 0x00, 0x00, 0xdc, 0xfb, 0xff, 0xff, 0x64, 0x00, 0x00, 0x00,
  0x73, 0x65, 0x71, 0x75, 0x65, 0x6e, 0x74, 0x69, 0x61, 0x6c, 0x5f, 0x31,
  0x31, 0x5f, 0x31, 0x2f, 0x64, 0x65, 0x6e, 0x73, 0x65, 0x5f, 0x34, 0x38,
  0x5f, 0x31, 0x2f, 0x4d, 0x61, 0x74, 0x4d, 0x75, 0x6c, 0x3b, 0x73, 0x65,
  0x71, 0x75, 0x65, 0x6e, 0x74, 0x69, 0x61, 0x6c, 0x5f, 0x31, 0x31, 0x5f,
  0x31, 0x2f, 0x64, 0x65, 0x6e, 0x73, 0x65, 0x5f, 0x34, 0x38, 0x5f, 0x31,
  0x2f, 0x52, 0x65, 0x6c, 0x75, 0x3b, 0x73, 0x65, 0x71, 0x75, 0x65, 0x6e,
  0x74, 0x69, 0x61, 0x6c, 0x5f, 0x31, 0x31, 0x5f, 0x31, 0x2f, 0x64, 0x65,
  0x6e, 0x73, 0x65, 0x5f, 0x34, 0x38, 0x5f, 0x31, 0x2f, 0x42, 0x69, 0x61,
  0x73, 0x41, 0x64, 0x64, 0x00, 0x00, 0x00, 0x00, 0x02, 0x00, 0x00, 0x00,
  0x01, 0x00, 0x00, 0x00, 0x20, 0x00, 0x00, 0x00, 0x96, 0xfc, 0xff, 0xff,
  0x00, 0x00, 0x00, 0x01, 0x14, 0x00, 0x00, 0x00, 0x1c, 0x00, 0x00, 0x00,
  0x1c, 0x00, 0x00, 0x00, 0x0b, 0x00, 0x00, 0x00, 0x80, 0x00, 0x00, 0x00,
  0x02, 0x00, 0x00, 0x00, 0xff, 0xff, 0xff, 0xff, 0x10, 0x00, 0x00, 0x00,
  0x80, 0xfc, 0xff, 0xff, 0x64, 0x00, 0x00, 0x00, 0x73, 0x65, 0x71, 0x75,
  0x65, 0x6e, 0x74, 0x69, 0x61, 0x6c, 0x5f, 0x31, 0x31, 0x5f, 0x31, 0x2f,
  0x64, 0x65, 0x6e, 0x73, 0x65, 0x5f, 0x34, 0x37, 0x5f, 0x31, 0x2f, 0x4d,
  0x61, 0x74, 0x4d, 0x75, 0x6c, 0x3b, 0x73, 0x65, 0x71, 0x75, 0x65, 0x6e,
  0x74, 0x69, 0x61, 0x6c, 0x5f, 0x31, 0x31, 0x5f, 0x31, 0x2f, 0x64, 0x65,
  0x6e, 0x73, 0x65, 0x5f, 0x34, 0x37, 0x5f, 0x31, 0x2f, 0x52, 0x65, 0x6c,
  0x75, 0x3b, 0x73, 0x65, 0x71, 0x75, 0x65, 0x6e, 0x74, 0x69, 0x61, 0x6c,
  0x5f, 0x31, 0x31, 0x5f, 0x31, 0x2f, 0x64, 0x65, 0x6e, 0x73, 0x65, 0x5f,
  0x34, 0x37, 0x5f, 0x31, 0x2f, 0x42, 0x69, 0x61, 0x73, 0x41, 0x64, 0x64,
  0x00, 0x00, 0x00, 0x00, 0x02, 0x00, 0x00, 0x00, 0x01, 0x00, 0x00, 0x00,
  0x10, 0x00, 0x00, 0x00, 0x3a, 0xfd, 0xff, 0xff, 0x00, 0x00, 0x00, 0x01,
  0x14, 0x00, 0x00, 0x00, 0x1c, 0x00, 0x00, 0x00, 0x1c, 0x00, 0x00, 0x00,
  0x0a, 0x00, 0x00, 0x00, 0x80, 0x00, 0x00, 0x00, 0x02, 0x00, 0x00, 0x00,
  0xff, 0xff, 0xff, 0xff, 0x08, 0x00, 0x00, 0x00, 0x24, 0xfd, 0xff, 0xff,
  0x64, 0x00, 0x00, 0x00, 0x73, 0x65, 0x71, 0x75, 0x65, 0x6e, 0x74, 0x69,
  0x61, 0x6c, 0x5f, 0x31, 0x31, 0x5f, 0x31, 0x2f, 0x64, 0x65, 0x6e, 0x73,
  0x65, 0x5f, 0x34, 0x36, 0x5f, 0x31, 0x2f, 0x4d, 0x61, 0x74, 0x4d, 0x75,
  0x6c, 0x3b, 0x73, 0x65, 0x71, 0x75, 0x65, 0x6e, 0x74, 0x69, 0x61, 0x6c,
  0x5f, 0x31, 0x31, 0x5f, 0x31, 0x2f, 0x64, 0x65, 0x6e, 0x73, 0x65, 0x5f,
  0x34, 0x36, 0x5f, 0x31, 0x2f, 0x52, 0x65, 0x6c, 0x75, 0x3b, 0x73, 0x65,
  0x71, 0x75, 0x65, 0x6e, 0x74, 0x69, 0x61, 0x6c, 0x5f, 0x31, 0x31, 0x5f,
  0x31, 0x2f, 0x64, 0x65, 0x6e, 0x73, 0x65, 0x5f, 0x34, 0x36, 0x5f, 0x31,
  0x2f, 0x42, 0x69, 0x61, 0x73, 0x41, 0x64, 0x64, 0x00, 0x00, 0x00, 0x00,
  0x02, 0x00, 0x00, 0x00, 0x01, 0x00, 0x00, 0x00, 0x08, 0x00, 0x00, 0x00,
  0x32, 0xfe, 0xff, 0xff, 0x00, 0x00, 0x00, 0x01, 0x10, 0x00, 0x00, 0x00,
  0x10, 0x00, 0x00, 0x00, 0x09, 0x00, 0x00, 0x00, 0x30, 0x00, 0x00, 0x00,
  0xb8, 0xfd, 0xff, 0xff, 0x21, 0x00, 0x00, 0x00, 0x73, 0x65, 0x71, 0x75,
  0x65, 0x6e, 0x74, 0x69, 0x61, 0x6c, 0x5f, 0x31, 0x31, 0x5f, 0x31, 0x2f,
  0x64, 0x65, 0x6e, 0x73, 0x65, 0x5f, 0x34, 0x36, 0x5f, 0x31, 0x2f, 0x4d,
  0x61, 0x74, 0x4d, 0x75, 0x6c, 0x00, 0x00, 0x00, 0x02, 0x00, 0x00, 0x00,
  0x08, 0x00, 0x00, 0x00, 0x05, 0x00, 0x00, 0x00, 0x82, 0xfe, 0xff, 0xff,
  0x00, 0x00, 0x00, 0x01, 0x10, 0x00, 0x00, 0x00, 0x10, 0x00, 0x00, 0x00,
  0x08, 0x00, 0x00, 0x00, 0x40, 0x00, 0x00, 0x00, 0x08, 0xfe, 0xff, 0xff,
  0x31, 0x00, 0x00, 0x00, 0x73, 0x65, 0x71, 0x75, 0x65, 0x6e, 0x74, 0x69,
  0x61, 0x6c, 0x5f, 0x31, 0x31, 0x5f, 0x31, 0x2f, 0x64, 0x65, 0x6e, 0x73,
  0x65, 0x5f, 0x34, 0x36, 0x5f, 0x31, 0x2f, 0x42, 0x69, 0x61, 0x73, 0x41,
  0x64, 0x64, 0x2f, 0x52, 0x65, 0x61, 0x64, 0x56, 0x61, 0x72, 0x69, 0x61,
  0x62, 0x6c, 0x65, 0x4f, 0x70, 0x00, 0x00, 0x00, 0x01, 0x00, 0x00, 0x00,
  0x08, 0x00, 0x00, 0x00, 0xde, 0xfe, 0xff, 0xff, 0x00, 0x00, 0x00, 0x01,
  0x10, 0x00, 0x00, 0x00, 0x10, 0x00, 0x00, 0x00, 0x07, 0x00, 0x00, 0x00,
  0x1c, 0x00, 0x00, 0x00, 0x64, 0xfe, 0xff, 0xff, 0x0f, 0x00, 0x00, 0x00,
  0x61, 0x72, 0x69, 0x74, 0x68, 0x2e, 0x63, 0x6f, 0x6e, 0x73, 0x74, 0x61,
  0x6e, 0x74, 0x35, 0x00, 0x01, 0x00, 0x00, 0x00, 0x10, 0x00, 0x00, 0x00,
  0x16, 0xff, 0xff, 0xff, 0x00, 0x00, 0x00, 0x01, 0x10, 0x00, 0x00, 0x00,
  0x10, 0x00, 0x00, 0x00, 0x06, 0x00, 0x00, 0x00, 0x1c, 0x00, 0x00, 0x00,
  0x9c, 0xfe, 0xff, 0xff, 0x0f, 0x00, 0x00, 0x00, 0x61, 0x72, 0x69, 0x74,
  0x68, 0x2e, 0x63, 0x6f, 0x6e, 0x73, 0x74, 0x61, 0x6e, 0x74, 0x34, 0x00,
  0x01, 0x00, 0x00, 0x00, 0x20, 0x00, 0x00, 0x00, 0x4e, 0xff, 0xff, 0xff,
  0x00, 0x00, 0x00, 0x01, 0x10, 0x00, 0x00, 0x00, 0x10, 0x00, 0x00, 0x00,
  0x05, 0x00, 0x00, 0x00, 0x1c, 0x00, 0x00, 0x00, 0xd4, 0xfe, 0xff, 0xff,
  0x0f, 0x00, 0x00, 0x00, 0x61, 0x72, 0x69, 0x74, 0x68, 0x2e, 0x63, 0x6f,
  0x6e, 0x73, 0x74, 0x61, 0x6e, 0x74, 0x33, 0x00, 0x01, 0x00, 0x00, 0x00,
  0x03, 0x00, 0x00, 0x00, 0x86, 0xff, 0xff, 0xff, 0x00, 0x00, 0x00, 0x01,
  0x10, 0x00, 0x00, 0x00, 0x10, 0x00, 0x00, 0x00, 0x04, 0x00, 0x00, 0x00,
  0x1c, 0x00, 0x00, 0x00, 0x0c, 0xff, 0xff, 0xff, 0x0f, 0x00, 0x00, 0x00,
  0x61, 0x72, 0x69, 0x74, 0x68, 0x2e, 0x63, 0x6f, 0x6e, 0x73, 0x74, 0x61,
  0x6e, 0x74, 0x32, 0x00, 0x02, 0x00, 0x00, 0x00, 0x10, 0x00, 0x00, 0x00,
  0x08, 0x00, 0x00, 0x00, 0xc2, 0xff, 0xff, 0xff, 0x00, 0x00, 0x00, 0x01,
  0x10, 0x00, 0x00, 0x00, 0x10, 0x00, 0x00, 0x00, 0x03, 0x00, 0x00, 0x00,
  0x1c, 0x00, 0x00, 0x00, 0x48, 0xff, 0xff, 0xff, 0x0f, 0x00, 0x00, 0x00,
  0x61, 0x72, 0x69, 0x74, 0x68, 0x2e, 0x63, 0x6f, 0x6e, 0x73, 0x74, 0x61,
  0x6e, 0x74, 0x31, 0x00, 0x02, 0x00, 0x00, 0x00, 0x20, 0x00, 0x00, 0x00,
  0x10, 0x00, 0x00, 0x00, 0x00, 0x00, 0x16, 0x00, 0x18, 0x00, 0x14, 0x00,
  0x00, 0x00, 0x10, 0x00, 0x0c, 0x00, 0x08, 0x00, 0x00, 0x00, 0x00, 0x00,
  0x00, 0x00, 0x07, 0x00, 0x16, 0x00, 0x00, 0x00, 0x00, 0x00, 0x00, 0x01,
  0x10, 0x00, 0x00, 0x00, 0x10, 0x00, 0x00, 0x00, 0x02, 0x00, 0x00, 0x00,
  0x1c, 0x00, 0x00, 0x00, 0x9c, 0xff, 0xff, 0xff, 0x0e, 0x00, 0x00, 0x00,
  0x61, 0x72, 0x69, 0x74, 0x68, 0x2e, 0x63, 0x6f, 0x6e, 0x73, 0x74, 0x61,
  0x6e, 0x74, 0x00, 0x00, 0x02, 0x00, 0x00, 0x00, 0x03, 0x00, 0x00, 0x00,
  0x20, 0x00, 0x00, 0x00, 0x00, 0x00, 0x16, 0x00, 0x1c, 0x00, 0x18, 0x00,
  0x00, 0x00, 0x14, 0x00, 0x10, 0x00, 0x0c, 0x00, 0x00, 0x00, 0x00, 0x00,
  0x08, 0x00, 0x07, 0x00, 0x16, 0x00, 0x00, 0x00, 0x00, 0x00, 0x00, 0x01,
  0x14, 0x00, 0x00, 0x00, 0x20, 0x00, 0x00, 0x00, 0x20, 0x00, 0x00, 0x00,
  0x01, 0x00, 0x00, 0x00, 0x40, 0x00, 0x00, 0x00, 0x02, 0x00, 0x00, 0x00,
  0xff, 0xff, 0xff, 0xff, 0x05, 0x00, 0x00, 0x00, 0x04, 0x00, 0x04, 0x00,
  0x04, 0x00, 0x00, 0x00, 0x22, 0x00, 0x00, 0x00, 0x73, 0x65, 0x72, 0x76,
  0x69, 0x6e, 0x67, 0x5f, 0x64, 0x65, 0x66, 0x61, 0x75, 0x6c, 0x74, 0x5f,
  0x6b, 0x65, 0x72, 0x61, 0x73, 0x5f, 0x74, 0x65, 0x6e, 0x73, 0x6f, 0x72,
  0x5f, 0x31, 0x37, 0x37, 0x3a, 0x30, 0x00, 0x00, 0x02, 0x00, 0x00, 0x00,
  0x01, 0x00, 0x00, 0x00, 0x05, 0x00, 0x00, 0x00, 0x02, 0x00, 0x00, 0x00,
  0x20, 0x00, 0x00, 0x00, 0x04, 0x00, 0x00, 0x00, 0xf4, 0xff, 0xff, 0xff,
  0x19, 0x00, 0x00, 0x00, 0x00, 0x00, 0x00, 0x19, 0x0c, 0x00, 0x0c, 0x00,
  0x0b, 0x00, 0x00, 0x00, 0x00, 0x00, 0x04, 0x00, 0x0c, 0x00, 0x00, 0x00,
  0x09, 0x00, 0x00, 0x00, 0x00, 0x00, 0x00, 0x09
};
unsigned int model_len = 5864;
