unsigned char model[] = {
  0x1c, 0x00, 0x00, 0x00, 0x54, 0x46, 0x4c, 0x33, 0x14, 0x00, 0x20, 0x00,
  0x1c, 0x00, 0x18, 0x00, 0x14, 0x00, 0x10, 0x00, 0x0c, 0x00, 0x00, 0x00,
  0x08, 0x00, 0x04, 0x00, 0x14, 0x00, 0x00, 0x00, 0x1c, 0x00, 0x00, 0x00,
  0x98, 0x00, 0x00, 0x00, 0xf0, 0x00, 0x00, 0x00, 0x44, 0x06, 0x00, 0x00,
  0x54, 0x06, 0x00, 0x00, 0x58, 0x0d, 0x00, 0x00, 0x03, 0x00, 0x00, 0x00,
  0x01, 0x00, 0x00, 0x00, 0x10, 0x00, 0x00, 0x00, 0x00, 0x00, 0x0a, 0x00,
  0x10, 0x00, 0x0c, 0x00, 0x08, 0x00, 0x04, 0x00, 0x0a, 0x00, 0x00, 0x00,
  0x0c, 0x00, 0x00, 0x00, 0x1c, 0x00, 0x00, 0x00, 0x3c, 0x00, 0x00, 0x00,
  0x0f, 0x00, 0x00, 0x00, 0x73, 0x65, 0x72, 0x76, 0x69, 0x6e, 0x67, 0x5f,
  0x64, 0x65, 0x66, 0x61, 0x75, 0x6c, 0x74, 0x00, 0x01, 0x00, 0x00, 0x00,
  0x04, 0x00, 0x00, 0x00, 0x90, 0xff, 0xff, 0xff, 0x0d, 0x00, 0x00, 0x00,
  0x04, 0x00, 0x00, 0x00, 0x08, 0x00, 0x00, 0x00, 0x6f, 0x75, 0x74, 0x70,
  0x75, 0x74, 0x5f, 0x30, 0x00, 0x00, 0x00, 0x00, 0x01, 0x00, 0x00, 0x00,
  0x04, 0x00, 0x00, 0x00, 0x9e, 0xf9, 0xff, 0xff, 0x04, 0x00, 0x00, 0x00,
  0x0c, 0x00, 0x00, 0x00, 0x6b, 0x65, 0x72, 0x61, 0x73, 0x5f, 0x74, 0x65,
  0x6e, 0x73, 0x6f, 0x72, 0x00, 0x00, 0x00, 0x00, 0x02, 0x00, 0x00, 0x00,
  0x34, 0x00, 0x00, 0x00, 0x04, 0x00, 0x00, 0x00, 0xdc, 0xff, 0xff, 0xff,
  0x10, 0x00, 0x00, 0x00, 0x04, 0x00, 0x00, 0x00, 0x13, 0x00, 0x00, 0x00,
  0x43, 0x4f, 0x4e, 0x56, 0x45, 0x52, 0x53, 0x49, 0x4f, 0x4e, 0x5f, 0x4d,
  0x45, 0x54, 0x41, 0x44, 0x41, 0x54, 0x41, 0x00, 0x08, 0x00, 0x0c, 0x00,
  0x08, 0x00, 0x04, 0x00, 0x08, 0x00, 0x00, 0x00, 0x0f, 0x00, 0x00, 0x00,
  0x04, 0x00, 0x00, 0x00, 0x13, 0x00, 0x00, 0x00, 0x6d, 0x69, 0x6e, 0x5f,
  0x72, 0x75, 0x6e, 0x74, 0x69, 0x6d, 0x65, 0x5f, 0x76, 0x65, 0x72, 0x73,
  0x69, 0x6f, 0x6e, 0x00, 0x11, 0x00, 0x00, 0x00, 0x50, 0x05, 0x00, 0x00,
  0x48, 0x05, 0x00, 0x00, 0x78, 0x04, 0x00, 0x00, 0x68, 0x02, 0x00, 0x00,
  0xd8, 0x01, 0x00, 0x00, 0xbc, 0x01, 0x00, 0x00, 0x6c, 0x01, 0x00, 0x00,
  0x3c, 0x01, 0x00, 0x00, 0x1c, 0x01, 0x00, 0x00, 0xbc, 0x00, 0x00, 0x00,
  0xb4, 0x00, 0x00, 0x00, 0xac, 0x00, 0x00, 0x00, 0xa4, 0x00, 0x00, 0x00,
  0x9c, 0x00, 0x00, 0x00, 0x94, 0x00, 0x00, 0x00, 0x74, 0x00, 0x00, 0x00,
  0x04, 0x00, 0x00, 0x00, 0x5e, 0xfa, 0xff, 0xff, 0x04, 0x00, 0x00, 0x00,
  0x60, 0x00, 0x00, 0x00, 0x0c, 0x00, 0x00, 0x00, 0x08, 0x00, 0x0e, 0x00,
  0x08, 0x00, 0x04, 0x00, 0x08, 0x00, 0x00, 0x00, 0x10, 0x00, 0x00, 0x00,
  0x28, 0x00, 0x00, 0x00, 0x00, 0x00, 0x06, 0x00, 0x08, 0x00, 0x04, 0x00,
  0x06, 0x00, 0x00, 0x00, 0x04, 0x00, 0x00, 0x00, 0x01, 0x00, 0x00, 0x00,
  0xea, 0x03, 0x00, 0x00, 0x0c, 0x00, 0x18, 0x00, 0x14, 0x00, 0x10, 0x00,
  0x0c, 0x00, 0x04, 0x00, 0x0c, 0x00, 0x00, 0x00, 0xca, 0xee, 0xb5, 0xd6,
  0xd8, 0x31, 0x6f, 0x1a, 0x02, 0x00, 0x00, 0x00, 0x02, 0x00, 0x00, 0x00,
  0x04, 0x00, 0x00, 0x00, 0x06, 0x00, 0x00, 0x00, 0x32, 0x2e, 0x31, 0x38,
  0x2e, 0x30, 0x00, 0x00, 0xca, 0xfa, 0xff, 0xff, 0x04, 0x00, 0x00, 0x00,
  0x10, 0x00, 0x00, 0x00, 0x31, 0x2e, 0x35, 0x2e, 0x30, 0x00, 0x00, 0x00,
  0x00, 0x00, 0x00, 0x00, 0x00, 0x00, 0x00, 0x00, 0x94, 0xf4, 0xff, 0xff,
  0x98, 0xf4, 0xff, 0xff, 0x9c, 0xf4, 0xff, 0xff, 0xa0, 0xf4, 0xff, 0xff,
  0xa4, 0xf4, 0xff, 0xff, 0xfa, 0xfa, 0xff, 0xff, 0x04, 0x00, 0x00, 0x00,
  0x50, 0x00, 0x00, 0x00, 0x68, 0x52, 0x69, 0x3f, 0x84, 0x3d, 0x03, 0xbe,
  0x72, 0xd4, 0x5a, 0x3d, 0x80, 0x01, 0xdf, 0x3c, 0xe8, 0x05, 0xa9, 0xbe,
  0x6d, 0x92, 0x8f, 0x3f, 0x7b, 0x54, 0xb2, 0x3e, 0x48, 0xf5, 0x28, 0x3f,
  0x60, 0x08, 0xc6, 0xbd, 0xc0, 0xf1, 0xb5, 0xbd, 0x5b, 0x90, 0x0a, 0x3f,
  0xaf, 0x25, 0x37, 0x3f, 0xd7, 0x28, 0x43, 0x3f, 0xac, 0xb6, 0x41, 0x3f,
  0x78, 0xa5, 0xb6, 0x3e, 0x6f, 0x76, 0x9c, 0xbe, 0x80, 0xdd, 0x19, 0x3e,
  0xb9, 0x30, 0x5c, 0x3f, 0x33, 0x2f, 0x34, 0xbf, 0x54, 0x32, 0xa2, 0x3e,
  0x56, 0xfb, 0xff, 0xff, 0x04, 0x00, 0x00, 0x00, 0x10, 0x00, 0x00, 0x00,
  0x78, 0x08, 0x87, 0xbd, 0xa2, 0x72, 0xb2, 0x3e, 0x68, 0xe8, 0x84, 0xbe,
  0x67, 0x89, 0x4c, 0x3e, 0x72, 0xfb, 0xff, 0xff, 0x04, 0x00, 0x00, 0x00,
  0x20, 0x00, 0x00, 0x00, 0xd7, 0x80, 0x84, 0x3e, 0x5d, 0x31, 0x21, 0x3e,
  0xc2, 0x98, 0xa0, 0x3e, 0xdd, 0xc3, 0x6c, 0xbe, 0x79, 0x3b, 0x72, 0x3e,
  0x5e, 0x58, 0xc6, 0xbc, 0xbd, 0x4e, 0xf7, 0xbb, 0x3d, 0x4a, 0x6f, 0xbe,
  0x9e, 0xfb, 0xff, 0xff, 0x04, 0x00, 0x00, 0x00, 0x40, 0x00, 0x00, 0x00,
  0xa3, 0x7a, 0x1d, 0xbe, 0xaa, 0x9a, 0x81, 0xbd, 0xdd, 0x9c, 0x33, 0x3e,
  0x0a, 0xbd, 0x1c, 0xbe, 0x32, 0xe4, 0xf6, 0x3d, 0xde, 0x7f, 0x38, 0xbd,
  0x00, 0x00, 0x00, 0x00, 0x42, 0x94, 0x2f, 0xbe, 0xbf, 0x0c, 0x66, 0x3e,
  0xbc, 0xb1, 0x70, 0x3e, 0x23, 0x46, 0x56, 0x3e, 0x96, 0x1a, 0x23, 0xbe,
  0x00, 0x00, 0x00, 0x00, 0x54, 0x3d, 0x4b, 0x3e, 0x00, 0x00, 0x00, 0x00,
  0xee, 0x6e, 0x31, 0x3c, 0xea, 0xfb, 0xff, 0xff, 0x04, 0x00, 0x00, 0x00,
  0x0c, 0x00, 0x00, 0x00, 0x4b, 0x43, 0x63, 0xbe, 0xed, 0x09, 0x13, 0x3e,
  0xc5, 0xcb, 0x11, 0x3b, 0x02, 0xfc, 0xff, 0xff, 0x04, 0x00, 0x00, 0x00,
  0x80, 0x00, 0x00, 0x00, 0x6b, 0x0f, 0x6b, 0xbf, 0xd5, 0x45, 0x25, 0x3f,
  0xd1, 0x9e, 0xe7, 0x3e, 0xfa, 0x62, 0x2c, 0x3f, 0x4c, 0xf1, 0x17, 0xbf,
  0x0d, 0xe4, 0xe7, 0x3e, 0x5b, 0x1b, 0x54, 0x3f, 0xb0, 0xab, 0x1f, 0x3f,
  0x58, 0xb8, 0xbf, 0xbd, 0x7a, 0x5f, 0x2d, 0x3f, 0xe7, 0x6c, 0x69, 0xbf,
  0x89, 0xc5, 0x80, 0x3d, 0x85, 0xa8, 0x53, 0x3e, 0x57, 0x05, 0xc9, 0x3e,
  0x92, 0xfd, 0x3d, 0x3f, 0x0b, 0x9a, 0xd7, 0x3e, 0xcf, 0x87, 0xe0, 0x3e,
  0x26, 0x4c, 0x1d, 0x3f, 0x99, 0xcd, 0x08, 0x3e, 0xb2, 0x41, 0x63, 0xbf,
  0x3b, 0x6b, 0x5d, 0x3f, 0x44, 0x20, 0xaa, 0x3e, 0x89, 0x52, 0x41, 0x3e,
  0x79, 0xeb, 0x1d, 0xbf, 0x08, 0x23, 0x2b, 0x3f, 0xa9, 0x1d, 0xc7, 0x3e,
  0xea, 0x17, 0x86, 0x3e, 0xd0, 0x68, 0x3b, 0xbf, 0x17, 0xfb, 0x35, 0x3f,
  0xe4, 0x9f, 0x42, 0x3f, 0x97, 0x4a, 0x49, 0x3f, 0x90, 0x97, 0x1d, 0xbf,
  0x8e, 0xfc, 0xff, 0xff, 0x04, 0x00, 0x00, 0x00, 0x00, 0x02, 0x00, 0x00,
  0xaa, 0xfd, 0x32, 0x3f, 0x0a, 0x64, 0x6a, 0x3e, 0x6d, 0x37, 0x10, 0xbf,
  0x0b, 0x05, 0x14, 0x3e, 0xe5, 0x78, 0x80, 0xbe, 0x99, 0xcc, 0xdc, 0xbd,
  0xbc, 0x55, 0x5a, 0x3e, 0x9c, 0x0c, 0xb4, 0x3e, 0x50, 0xf7, 0x50, 0x3e,
  0xd0, 0x9e, 0xae, 0x3e, 0xfa, 0xa1, 0xcb, 0xbe, 0xef, 0x69, 0xe3, 0xbe,
  0x87, 0xe9, 0x69, 0xbc, 0x7c, 0xab, 0xe4, 0x3e, 0xa0, 0xeb, 0x04, 0xbd,
  0x79, 0x72, 0xed, 0xbe, 0xef, 0x84, 0x51, 0x3e, 0x63, 0x65, 0xd0, 0x3e,
  0x15, 0x75, 0x1d, 0x3f, 0xef, 0x4d, 0x36, 0x3e, 0x23, 0x6c, 0x30, 0x3e,
  0xd7, 0xeb, 0x56, 0xbe, 0x8d, 0x8d, 0x74, 0x3c, 0x87, 0xb2, 0xd4, 0x3d,
  0x42, 0x18, 0x32, 0x3e, 0xf2, 0xc9, 0x12, 0x3f, 0x6a, 0xf7, 0x2e, 0xbf,
  0xb8, 0xfa, 0x18, 0x3f, 0xa6, 0xd2, 0xb1, 0xbe, 0x2d, 0x2c, 0x0b, 0x3f,
  0x5d, 0x69, 0x57, 0xbe, 0xe2, 0x8b, 0xad, 0x3e, 0xda, 0xca, 0xf6, 0xbe,
  0x1a, 0xf5, 0x37, 0xbe, 0xa9, 0x5b, 0xdd, 0x3e, 0xaf, 0xfa, 0x08, 0xbe,
  0x37, 0x2b, 0x29, 0x3f, 0xb3, 0x5b, 0x54, 0x3d, 0x5c, 0x27, 0x1c, 0x3f,
  0x2e, 0xf8, 0x94, 0x3e, 0x06, 0x8d, 0xb5, 0x3e, 0x3e, 0x94, 0x71, 0xbe,
  0x1c, 0x89, 0x15, 0x3d, 0x88, 0xdc, 0xdb, 0xbe, 0xa7, 0xf7, 0xb1, 0xbe,
  0xdc, 0x73, 0x9f, 0x3e, 0x10, 0x37, 0x72, 0x3e, 0x55, 0xdf, 0x01, 0xbf,
  0x70, 0x55, 0xb9, 0x3d, 0x20, 0x0d, 0xd5, 0xbe, 0x70, 0x9f, 0x9e, 0xbd,
  0xac, 0x7d, 0x8b, 0x3e, 0x58, 0x88, 0xfe, 0xbe, 0x68, 0xc3, 0x3a, 0x3e,
  0x54, 0x27, 0xd1, 0x3e, 0x44, 0xc0, 0xd9, 0xbe, 0x09, 0xcd, 0x3f, 0xbe,
  0x14, 0xf8, 0x64, 0x3e, 0xa6, 0xda, 0x0c, 0xbf, 0xec, 0x70, 0xce, 0x3e,
  0x1e, 0xa4, 0xba, 0xbd, 0x51, 0x69, 0xfa, 0x3b, 0xbb, 0x01, 0xa1, 0x3d,
  0x19, 0x49, 0x11, 0x3f, 0xd0, 0xaf, 0x44, 0x3f, 0x96, 0x64, 0x01, 0x3f,
  0xe9, 0x01, 0xe6, 0x3e, 0xfa, 0x16, 0xad, 0xbe, 0x3b, 0x3d, 0x58, 0xbc,
  0xdc, 0x2a, 0x08, 0xbf, 0x73, 0xe0, 0x0b, 0xbf, 0xc1, 0x83, 0xb3, 0xbe,
  0x0c, 0x89, 0x35, 0x3c, 0x75, 0xa9, 0x56, 0x3e, 0xe0, 0x06, 0x5f, 0x3e,
  0xea, 0x6e, 0xb2, 0xbe, 0x13, 0xdf, 0xee, 0x3e, 0x10, 0x2d, 0xb7, 0xbe,
  0x24, 0x86, 0xe7, 0xbd, 0x47, 0x1e, 0x93, 0x3c, 0x04, 0x5b, 0xa1, 0x3e,
  0x4a, 0xb2, 0x1e, 0x3f, 0x40, 0x4b, 0x81, 0x3e, 0xad, 0xe1, 0xc9, 0xbe,
  0x17, 0x03, 0x1e, 0xbe, 0x22, 0xe3, 0x0a, 0xbd, 0xde, 0x72, 0xe1, 0x3d,
  0xeb, 0xf4, 0x19, 0xbf, 0xbb, 0xa6, 0xdc, 0x3c, 0x5e, 0xbd, 0xd8, 0x3d,
  0x6a, 0xf0, 0xad, 0xbe, 0xd3, 0x7d, 0xa7, 0x3e, 0x48, 0xd3, 0x63, 0x3e,
  0x8b, 0xe7, 0xaf, 0xbc, 0xca, 0x5a, 0x93, 0x3e, 0x9f, 0xbf, 0x83, 0x3e,
  0x9c, 0xd2, 0xae, 0xbe, 0x80, 0x14, 0xc9, 0xbc, 0x80, 0xaf, 0xea, 0x3e,
  0x40, 0x44, 0x3f, 0x3d, 0xd8, 0x5d, 0xd9, 0xbe, 0x20, 0x42, 0x95, 0x3d,
  0x8c, 0x61, 0xa7, 0x3e, 0x60, 0xd1, 0xfc, 0xbd, 0x7f, 0x99, 0x2f, 0x3f,
  0xd7, 0xab, 0x86, 0x3e, 0x97, 0x3b, 0xba, 0x3e, 0x3b, 0x98, 0x5f, 0x3e,
  0xe4, 0x59, 0x9d, 0x3e, 0xdb, 0x69, 0xd3, 0xbe, 0x0b, 0x96, 0x45, 0xbf,
  0x96, 0xc4, 0x06, 0xbf, 0xfc, 0x30, 0xaa, 0xbe, 0xd0, 0x0b, 0x34, 0xbe,
  0x64, 0x86, 0xde, 0x3e, 0xfc, 0x99, 0xeb, 0xbe, 0x94, 0xd3, 0x93, 0xbe,
  0x00, 0xc7, 0x26, 0xbe, 0xac, 0x8b, 0xa7, 0xbe, 0xf0, 0x1c, 0xa6, 0xbd,
  0xbf, 0x27, 0x23, 0x3e, 0x81, 0xd1, 0x07, 0xbf, 0xca, 0x62, 0xdd, 0xbc,
  0xdd, 0x76, 0x8b, 0x3e, 0xe9, 0x2f, 0x2a, 0x3f, 0x1c, 0xff, 0x20, 0x3f,
  0x92, 0xe0, 0x93, 0x3e, 0x9b, 0xaf, 0x01, 0x3e, 0x9a, 0xfe, 0xff, 0xff,
  0x04, 0x00, 0x00, 0x00, 0xc0, 0x00, 0x00, 0x00, 0xa9, 0xef, 0x9f, 0x3e,
  0xce, 0xa2, 0xc3, 0x3e, 0xac, 0xbf, 0x9b, 0x3d, 0x5c, 0x07, 0x1c, 0x3f,
  0x11, 0x50, 0x36, 0xbf, 0xa1, 0x9f, 0xb1, 0x3e, 0xf8, 0x79, 0xfc, 0x3d,
  0x4c, 0x70, 0xca, 0x3c, 0x36, 0x81, 0x45, 0xbf, 0x33, 0x57, 0x8c, 0xbe,
  0x89, 0xcc, 0xfd, 0xbe, 0x9d, 0xf9, 0x92, 0x3e, 0x38, 0x9f, 0x98, 0x3d,
  0x45, 0x8d, 0x24, 0xbf, 0xe8, 0x3f, 0xd0, 0x3d, 0x0c, 0xb3, 0x94, 0xbe,
  0x52, 0xc9, 0xc2, 0xbe, 0x73, 0xc3, 0xb1, 0xbd, 0x25, 0xf3, 0xbc, 0x3e,
  0xfd, 0x45, 0x1d, 0xbf, 0x34, 0x95, 0x5e, 0xbf, 0x81, 0x47, 0x51, 0x3e,
  0xba, 0x32, 0x78, 0xbe, 0x38, 0xc2, 0x05, 0xbf, 0x35, 0xde, 0x40, 0x3f,
  0x9c, 0xa4, 0x19, 0x3f, 0x15, 0x1a, 0x73, 0x3e, 0x72, 0x14, 0xed, 0xbe,
  0x4e, 0x07, 0xdf, 0x3e, 0xe6, 0xa9, 0x2c, 0x3f, 0x7f, 0xe5, 0x08, 0xbf,
  0x42, 0x21, 0x80, 0xbf, 0x29, 0xab, 0x4d, 0xbf, 0x48, 0x27, 0x7e, 0xbe,
  0x44, 0x8d, 0xb7, 0x3e, 0x6f, 0xfc, 0xba, 0xbe, 0x25, 0xcf, 0x9e, 0x3e,
  0x69, 0x66, 0x50, 0x3e, 0x22, 0x1b, 0x5f, 0xbe, 0xfb, 0x07, 0x06, 0xbf,
  0x7c, 0xdb, 0x20, 0xbf, 0x23, 0x8e, 0xbf, 0x3e, 0xaa, 0xd8, 0x55, 0xbf,
  0x84, 0x02, 0x2f, 0xbe, 0x20, 0xe1, 0x1d, 0xbd, 0x0c, 0x81, 0x20, 0xbf,
  0x72, 0x9e, 0xd4, 0x3e, 0xb1, 0x15, 0xfd, 0x3e, 0x14, 0xf9, 0xff, 0xff,
  0x18, 0xf9, 0xff, 0xff, 0x0f, 0x00, 0x00, 0x00, 0x4d, 0x4c, 0x49, 0x52,
  0x20, 0x43, 0x6f, 0x6e, 0x76, 0x65, 0x72, 0x74, 0x65, 0x64, 0x2e, 0x00,
  0x01, 0x00, 0x00, 0x00, 0x14, 0x00, 0x00, 0x00, 0x00, 0x00, 0x0e, 0x00,
  0x18, 0x00, 0x14, 0x00, 0x10, 0x00, 0x0c, 0x00, 0x08, 0x00, 0x04, 0x00,
  0x0e, 0x00, 0x00, 0x00, 0x14, 0x00, 0x00, 0x00, 0x1c, 0x00, 0x00, 0x00,
  0x5c, 0x01, 0x00, 0x00, 0x60, 0x01, 0x00, 0x00, 0x64, 0x01, 0x00, 0x00,
  0x04, 0x00, 0x00, 0x00, 0x6d, 0x61, 0x69, 0x6e, 0x00, 0x00, 0x00, 0x00,
  0x05, 0x00, 0x00, 0x00, 0x04, 0x01, 0x00, 0x00, 0xbc, 0x00, 0x00, 0x00,
  0x84, 0x00, 0x00, 0x00, 0x50, 0x00, 0x00, 0x00, 0x14, 0x00, 0x00, 0x00,
  0x00, 0x00, 0x0e, 0x00, 0x1a, 0x00, 0x14, 0x00, 0x10, 0x00, 0x0c, 0x00,
  0x0b, 0x00, 0x04, 0x00, 0x0e, 0x00, 0x00, 0x00, 0x1c, 0x00, 0x00, 0x00,
  0x00, 0x00, 0x00, 0x09, 0x1c, 0x00, 0x00, 0x00, 0x20, 0x00, 0x00, 0x00,
  0x01, 0x00, 0x00, 0x00, 0x00, 0x00, 0x06, 0x00, 0x08, 0x00, 0x04, 0x00,
  0x06, 0x00, 0x00, 0x00, 0x00, 0x00, 0x80, 0x3f, 0x01, 0x00, 0x00, 0x00,
  0x0d, 0x00, 0x00, 0x00, 0x01, 0x00, 0x00, 0x00, 0x0c, 0x00, 0x00, 0x00,
  0x66, 0xff, 0xff, 0xff, 0x10, 0x00, 0x00, 0x00, 0x00, 0x00, 0x00, 0x08,
  0x0c, 0x00, 0x00, 0x00, 0x10, 0x00, 0x00, 0x00, 0xe0, 0xf9, 0xff, 0xff,
  0x01, 0x00, 0x00, 0x00, 0x0c, 0x00, 0x00, 0x00, 0x03, 0x00, 0x00, 0x00,
  0x0b, 0x00, 0x00, 0x00, 0x01, 0x00, 0x00, 0x00, 0x04, 0x00, 0x00, 0x00,
  0x96, 0xff, 0xff, 0xff, 0x10, 0x00, 0x00, 0x00, 0x00, 0x00, 0x00, 0x08,
  0x10, 0x00, 0x00, 0x00, 0x14, 0x00, 0x00, 0x00, 0x86, 0xff, 0xff, 0xff,
  0x00, 0x00, 0x00, 0x01, 0x01, 0x00, 0x00, 0x00, 0x0b, 0x00, 0x00, 0x00,
  0x03, 0x00, 0x00, 0x00, 0x0a, 0x00, 0x00, 0x00, 0x02, 0x00, 0x00, 0x00,
  0x05, 0x00, 0x00, 0x00, 0xca, 0xff, 0xff, 0xff, 0x10, 0x00, 0x00, 0x00,
  0x00, 0x00, 0x00, 0x08, 0x10, 0x00, 0x00, 0x00, 0x14, 0x00, 0x00, 0x00,
  0xba, 0xff, 0xff, 0xff, 0x00, 0x00, 0x00, 0x01, 0x01, 0x00, 0x00, 0x00,
  0x0a, 0x00, 0x00, 0x00, 0x03, 0x00, 0x00, 0x00, 0x09, 0x00, 0x00, 0x00,
  0x03, 0x00, 0x00, 0x00, 0x06, 0x00, 0x00, 0x00, 0x00, 0x00, 0x0e, 0x00,
  0x16, 0x00, 0x00, 0x00, 0x10, 0x00, 0x0c, 0x00, 0x0b, 0x00, 0x04, 0x00,
  0x0e, 0x00, 0x00, 0x00, 0x18, 0x00, 0x00, 0x00, 0x00, 0x00, 0x00, 0x08,
  0x18, 0x00, 0x00, 0x00, 0x1c, 0x00, 0x00, 0x00, 0x00, 0x00, 0x06, 0x00,
  0x08, 0x00, 0x07, 0x00, 0x06, 0x00, 0x00, 0x00, 0x00, 0x00, 0x00, 0x01,
  0x01, 0x00, 0x00, 0x00, 0x09, 0x00, 0x00, 0x00, 0x03, 0x00, 0x00, 0x00,
  0x00, 0x00, 0x00, 0x00, 0x08, 0x00, 0x00, 0x00, 0x07, 0x00, 0x00, 0x00,
  0x01, 0x00, 0x00, 0x00, 0x0d, 0x00, 0x00, 0x00, 0x01, 0x00, 0x00, 0x00,
  0x00, 0x00, 0x00, 0x00, 0x0e, 0x00, 0x00, 0x00, 0x14, 0x05, 0x00, 0x00,
  0xbc, 0x04, 0x00, 0x00, 0x64, 0x04, 0x00, 0x00, 0x24, 0x04, 0x00, 0x00,
  0xe8, 0x03, 0x00, 0x00, 0xac, 0x03, 0x00, 0x00, 0x50, 0x03, 0x00, 0x00,
  0xf8, 0x02, 0x00, 0x00, 0xac, 0x02, 0x00, 0x00, 0x18, 0x02, 0x00, 0x00,
  0x7c, 0x01, 0x00, 0x00, 0xe0, 0x00, 0x00, 0x00, 0x60, 0x00, 0x00, 0x00,
  0x04, 0x00, 0x00, 0x00, 0x3a, 0xfb, 0xff, 0xff, 0x00, 0x00, 0x00, 0x01,
  0x14, 0x00, 0x00, 0x00, 0x1c, 0x00, 0x00, 0x00, 0x1c, 0x00, 0x00, 0x00,
  0x0e, 0x00, 0x00, 0x00, 0x34, 0x00, 0x00, 0x00, 0x02, 0x00, 0x00, 0x00,
  0xff, 0xff, 0xff, 0xff, 0x03, 0x00, 0x00, 0x00, 0x24, 0xfb, 0xff, 0xff,
  0x1b, 0x00, 0x00, 0x00, 0x53, 0x74, 0x61, 0x74, 0x65, 0x66, 0x75, 0x6c,
  0x50, 0x61, 0x72, 0x74, 0x69, 0x74, 0x69, 0x6f, 0x6e, 0x65, 0x64, 0x43,
  0x61, 0x6c, 0x6c, 0x5f, 0x31, 0x3a, 0x30, 0x00, 0x02, 0x00, 0x00, 0x00,
  0x01, 0x00, 0x00, 0x00, 0x03, 0x00, 0x00, 0x00, 0x92, 0xfb, 0xff, 0xff,
  0x00, 0x00, 0x00, 0x01, 0x14, 0x00, 0x00, 0x00, 0x1c, 0x00, 0x00, 0x00,
  0x1c, 0x00, 0x00, 0x00, 0x0d, 0x00, 0x00, 0x00, 0x58, 0x00, 0x00, 0x00,
  0x02, 0x00, 0x00, 0x00, 0xff, 0xff, 0xff, 0xff, 0x03, 0x00, 0x00, 0x00,
  0x7c, 0xfb, 0xff, 0xff, 0x3c, 0x00, 0x00, 0x00, 0x73, 0x65, 0x71, 0x75,
  0x65, 0x6e, 0x74, 0x69, 0x61, 0x6c, 0x5f, 0x31, 0x2f, 0x64, 0x65, 0x6e,
  0x73, 0x65, 0x5f, 0x33, 0x5f, 0x31, 0x2f, 0x4d, 0x61, 0x74, 0x4d, 0x75,
  0x6c, 0x3b, 0x73, 0x65, 0x71, 0x75, 0x65, 0x6e, 0x74, 0x69, 0x61, 0x6c,
  0x5f, 0x31, 0x2f, 0x64, 0x65, 0x6e, 0x73, 0x65, 0x5f, 0x33, 0x5f, 0x31,
  0x2f, 0x42, 0x69, 0x61, 0x73, 0x41, 0x64, 0x64, 0x00, 0x00, 0x00, 0x00,
  0x02, 0x00, 0x00, 0x00, 0x01, 0x00, 0x00, 0x00, 0x03, 0x00, 0x00, 0x00,
  0x0e, 0xfc, 0xff, 0xff, 0x00, 0x00, 0x00, 0x01, 0x14, 0x00, 0x00, 0x00,
  0x1c, 0x00, 0x00, 0x00, 0x1c, 0x00, 0x00, 0x00, 0x0c, 0x00, 0x00, 0x00,
  0x74, 0x00, 0x00, 0x00, 0x02, 0x00, 0x00, 0x00, 0xff, 0xff, 0xff, 0xff,
  0x10, 0x00, 0x00, 0x00, 0xf8, 0xfb, 0xff, 0xff, 0x58, 0x00, 0x00, 0x00,
  0x73, 0x65, 0x71, 0x75, 0x65, 0x6e, 0x74, 0x69, 0x61, 0x6c, 0x5f, 0x31,
  0x2f, 0x64, 0x65, 0x6e, 0x73, 0x65, 0x5f, 0x32, 0x5f, 0x31, 0x2f, 0x4d,
  0x61, 0x74, 0x4d, 0x75, 0x6c, 0x3b, 0x73, 0x65, 0x71, 0x75, 0x65, 0x6e,
  0x74, 0x69, 0x61, 0x6c, 0x5f, 0x31, 0x2f, 0x64, 0x65, 0x6e, 0x73, 0x65,
  0x5f, 0x32, 0x5f, 0x31, 0x2f, 0x52, 0x65, 0x6c, 0x75, 0x3b, 0x73, 0x65,
  0x71, 0x75, 0x65, 0x6e, 0x74, 0x69, 0x61, 0x6c, 0x5f, 0x31, 0x2f, 0x64,
  0x65, 0x6e, 0x73, 0x65, 0x5f, 0x32, 0x5f, 0x31, 0x2f, 0x42, 0x69, 0x61,
  0x73, 0x41, 0x64, 0x64, 0x00, 0x00, 0x00, 0x00, 0x02, 0x00, 0x00, 0x00,
  0x01, 0x00, 0x00, 0x00, 0x10, 0x00, 0x00, 0x00, 0xa6, 0xfc, 0xff, 0xff,
  0x00, 0x00, 0x00, 0x01, 0x14, 0x00, 0x00, 0x00, 0x1c, 0x00, 0x00, 0x00,
  0x1c, 0x00, 0x00, 0x00, 0x0b, 0x00, 0x00, 0x00, 0x74, 0x00, 0x00, 0x00,
  0x02, 0x00, 0x00, 0x00, 0xff, 0xff, 0xff, 0xff, 0x08, 0x00, 0x00, 0x00,
  0x90, 0xfc, 0xff, 0xff, 0x58, 0x00, 0x00, 0x00, 0x73, 0x65, 0x71, 0x75,
  0x65, 0x6e, 0x74, 0x69, 0x61, 0x6c, 0x5f, 0x31, 0x2f, 0x64, 0x65, 0x6e,
  0x73, 0x65, 0x5f, 0x31, 0x5f, 0x32, 0x2f, 0x4d, 0x61, 0x74, 0x4d, 0x75,
  0x6c, 0x3b, 0x73, 0x65, 0x71, 0x75, 0x65, 0x6e, 0x74, 0x69, 0x61, 0x6c,
  0x5f, 0x31, 0x2f, 0x64, 0x65, 0x6e, 0x73, 0x65, 0x5f, 0x31, 0x5f, 0x32,
  0x2f, 0x52, 0x65, 0x6c, 0x75, 0x3b, 0x73, 0x65, 0x71, 0x75, 0x65, 0x6e,
  0x74, 0x69, 0x61, 0x6c, 0x5f, 0x31, 0x2f, 0x64, 0x65, 0x6e, 0x73, 0x65,
  0x5f, 0x31, 0x5f, 0x32, 0x2f, 0x42, 0x69, 0x61, 0x73, 0x41, 0x64, 0x64,
  0x00, 0x00, 0x00, 0x00, 0x02, 0x00, 0x00, 0x00, 0x01, 0x00, 0x00, 0x00,
  0x08, 0x00, 0x00, 0x00, 0x3e, 0xfd, 0xff, 0xff, 0x00, 0x00, 0x00, 0x01,
  0x14, 0x00, 0x00, 0x00, 0x1c, 0x00, 0x00, 0x00, 0x1c, 0x00, 0x00, 0x00,
  0x0a, 0x00, 0x00, 0x00, 0x6c, 0x00, 0x00, 0x00, 0x02, 0x00, 0x00, 0x00,
  0xff, 0xff, 0xff, 0xff, 0x04, 0x00, 0x00, 0x00, 0x28, 0xfd, 0xff, 0xff,
  0x52, 0x00, 0x00, 0x00, 0x73, 0x65, 0x71, 0x75, 0x65, 0x6e, 0x74, 0x69,
  0x61, 0x6c, 0x5f, 0x31, 0x2f, 0x64, 0x65, 0x6e, 0x73, 0x65, 0x5f, 0x31,
  0x2f, 0x4d, 0x61, 0x74, 0x4d, 0x75, 0x6c, 0x3b, 0x73, 0x65, 0x71, 0x75,
  0x65, 0x6e, 0x74, 0x69, 0x61, 0x6c, 0x5f, 0x31, 0x2f, 0x64, 0x65, 0x6e,
  0x73, 0x65, 0x5f, 0x31, 0x2f, 0x52, 0x65, 0x6c, 0x75, 0x3b, 0x73, 0x65,
  0x71, 0x75, 0x65, 0x6e, 0x74, 0x69, 0x61, 0x6c, 0x5f, 0x31, 0x2f, 0x64,
  0x65, 0x6e, 0x73, 0x65, 0x5f, 0x31, 0x2f, 0x42, 0x69, 0x61, 0x73, 0x41,
  0x64, 0x64, 0x00, 0x00, 0x02, 0x00, 0x00, 0x00, 0x01, 0x00, 0x00, 0x00,
  0x04, 0x00, 0x00, 0x00, 0x22, 0xfe, 0xff, 0xff, 0x00, 0x00, 0x00, 0x01,
  0x10, 0x00, 0x00, 0x00, 0x10, 0x00, 0x00, 0x00, 0x09, 0x00, 0x00, 0x00,
  0x28, 0x00, 0x00, 0x00, 0xa8, 0xfd, 0xff, 0xff, 0x1b, 0x00, 0x00, 0x00,
  0x73, 0x65, 0x71, 0x75, 0x65, 0x6e, 0x74, 0x69, 0x61, 0x6c, 0x5f, 0x31,
  0x2f, 0x64, 0x65, 0x6e, 0x73, 0x65, 0x5f, 0x31, 0x2f, 0x4d, 0x61, 0x74,
  0x4d, 0x75, 0x6c, 0x00, 0x02, 0x00, 0x00, 0x00, 0x04, 0x00, 0x00, 0x00,
  0x05, 0x00, 0x00, 0x00, 0x6a, 0xfe, 0xff, 0xff, 0x00, 0x00, 0x00, 0x01,
  0x10, 0x00, 0x00, 0x00, 0x10, 0x00, 0x00, 0x00, 0x08, 0x00, 0x00, 0x00,
  0x38, 0x00, 0x00, 0x00, 0xf0, 0xfd, 0xff, 0xff, 0x2b, 0x00, 0x00, 0x00,
  0x73, 0x65, 0x71, 0x75, 0x65, 0x6e, 0x74, 0x69, 0x61, 0x6c, 0x5f, 0x31,
  0x2f, 0x64, 0x65, 0x6e, 0x73, 0x65, 0x5f, 0x31, 0x2f, 0x42, 0x69, 0x61,
  0x73, 0x41, 0x64, 0x64, 0x2f, 0x52, 0x65, 0x61, 0x64, 0x56, 0x61, 0x72,
  0x69, 0x61, 0x62, 0x6c, 0x65, 0x4f, 0x70, 0x00, 0x01, 0x00, 0x00, 0x00,
  0x04, 0x00, 0x00, 0x00, 0xbe, 0xfe, 0xff, 0xff, 0x00, 0x00, 0x00, 0x01,
  0x10, 0x00, 0x00, 0x00, 0x10, 0x00, 0x00, 0x00, 0x07, 0x00, 0x00, 0x00,
  0x3c, 0x00, 0x00, 0x00, 0x44, 0xfe, 0xff, 0xff, 0x2d, 0x00, 0x00, 0x00,
  0x73, 0x65, 0x71, 0x75, 0x65, 0x6e, 0x74, 0x69, 0x61, 0x6c, 0x5f, 0x31,
  0x2f, 0x64, 0x65, 0x6e, 0x73, 0x65, 0x5f, 0x31, 0x5f, 0x32, 0x2f, 0x42,
  0x69, 0x61, 0x73, 0x41, 0x64, 0x64, 0x2f, 0x52, 0x65, 0x61, 0x64, 0x56,
  0x61, 0x72, 0x69, 0x61, 0x62, 0x6c, 0x65, 0x4f, 0x70, 0x00, 0x00, 0x00,
  0x01, 0x00, 0x00, 0x00, 0x08, 0x00, 0x00, 0x00, 0x16, 0xff, 0xff, 0xff,
  0x00, 0x00, 0x00, 0x01, 0x10, 0x00, 0x00, 0x00, 0x10, 0x00, 0x00, 0x00,
  0x06, 0x00, 0x00, 0x00, 0x1c, 0x00, 0x00, 0x00, 0x9c, 0xfe, 0xff, 0xff,
  0x0f, 0x00, 0x00, 0x00, 0x61, 0x72, 0x69, 0x74, 0x68, 0x2e, 0x63, 0x6f,
  0x6e, 0x73, 0x74, 0x61, 0x6e, 0x74, 0x34, 0x00, 0x01, 0x00, 0x00, 0x00,
  0x10, 0x00, 0x00, 0x00, 0x4e, 0xff, 0xff, 0xff, 0x00, 0x00, 0x00, 0x01,
  0x10, 0x00, 0x00, 0x00, 0x10, 0x00, 0x00, 0x00, 0x05, 0x00, 0x00, 0x00,
  0x1c, 0x00, 0x00, 0x00, 0xd4, 0xfe, 0xff, 0xff, 0x0f, 0x00, 0x00, 0x00,
  0x61, 0x72, 0x69, 0x74, 0x68, 0x2e, 0x63, 0x6f, 0x6e, 0x73, 0x74, 0x61,
  0x6e, 0x74, 0x33, 0x00, 0x01, 0x00, 0x00, 0x00, 0x03, 0x00, 0x00, 0x00,
  0x86, 0xff, 0xff, 0xff, 0x00, 0x00, 0x00, 0x01, 0x10, 0x00, 0x00, 0x00,
  0x10, 0x00, 0x00, 0x00, 0x04, 0x00, 0x00, 0x00, 0x1c, 0x00, 0x00, 0x00,
  0x0c, 0xff, 0xff, 0xff, 0x0f, 0x00, 0x00, 0x00, 0x61, 0x72, 0x69, 0x74,
  0x68, 0x2e, 0x63, 0x6f, 0x6e, 0x73, 0x74, 0x61, 0x6e, 0x74, 0x32, 0x00,
  0x02, 0x00, 0x00, 0x00, 0x08, 0x00, 0x00, 0x00, 0x04, 0x00, 0x00, 0x00,
  0xc2, 0xff, 0xff, 0xff, 0x00, 0x00, 0x00, 0x01, 0x10, 0x00, 0x00, 0x00,
  0x10, 0x00, 0x00, 0x00, 0x03, 0x00, 0x00, 0x00, 0x1c, 0x00, 0x00, 0x00,
  0x48, 0xff, 0xff, 0xff, 0x0f, 0x00, 0x00, 0x00, 0x61, 0x72, 0x69, 0x74,
  0x68, 0x2e, 0x63, 0x6f, 0x6e, 0x73, 0x74, 0x61, 0x6e, 0x74, 0x31, 0x00,
  0x02, 0x00, 0x00, 0x00, 0x10, 0x00, 0x00, 0x00, 0x08, 0x00, 0x00, 0x00,
  0x00, 0x00, 0x16, 0x00, 0x18, 0x00, 0x14, 0x00, 0x00, 0x00, 0x10, 0x00,
  0x0c, 0x00, 0x08, 0x00, 0x00, 0x00, 0x00, 0x00, 0x00, 0x00, 0x07, 0x00,
  0x16, 0x00, 0x00, 0x00, 0x00, 0x00, 0x00, 0x01, 0x10, 0x00, 0x00, 0x00,
  0x10, 0x00, 0x00, 0x00, 0x02, 0x00, 0x00, 0x00, 0x1c, 0x00, 0x00, 0x00,
  0x9c, 0xff, 0xff, 0xff, 0x0e, 0x00, 0x00, 0x00, 0x61, 0x72, 0x69, 0x74,
  0x68, 0x2e, 0x63, 0x6f, 0x6e, 0x73, 0x74, 0x61, 0x6e, 0x74, 0x00, 0x00,
  0x02, 0x00, 0x00, 0x00, 0x03, 0x00, 0x00, 0x00, 0x10, 0x00, 0x00, 0x00,
  0x00, 0x00, 0x16, 0x00, 0x1c, 0x00, 0x18, 0x00, 0x00, 0x00, 0x14, 0x00,
  0x10, 0x00, 0x0c, 0x00, 0x00, 0x00, 0x00, 0x00, 0x08, 0x00, 0x07, 0x00,
  0x16, 0x00, 0x00, 0x00, 0x00, 0x00, 0x00, 0x01, 0x14, 0x00, 0x00, 0x00,
  0x20, 0x00, 0x00, 0x00, 0x20, 0x00, 0x00, 0x00, 0x01, 0x00, 0x00, 0x00,
  0x3c, 0x00, 0x00, 0x00, 0x02, 0x00, 0x00, 0x00, 0xff, 0xff, 0xff, 0xff,
  0x05, 0x00, 0x00, 0x00, 0x04, 0x00, 0x04, 0x00, 0x04, 0x00, 0x00, 0x00,
  0x1e, 0x00, 0x00, 0x00, 0x73, 0x65, 0x72, 0x76, 0x69, 0x6e, 0x67, 0x5f,
  0x64, 0x65, 0x66, 0x61, 0x75, 0x6c, 0x74, 0x5f, 0x6b, 0x65, 0x72, 0x61,
  0x73, 0x5f, 0x74, 0x65, 0x6e, 0x73, 0x6f, 0x72, 0x3a, 0x30, 0x00, 0x00,
  0x02, 0x00, 0x00, 0x00, 0x01, 0x00, 0x00, 0x00, 0x05, 0x00, 0x00, 0x00,
  0x02, 0x00, 0x00, 0x00, 0x20, 0x00, 0x00, 0x00, 0x04, 0x00, 0x00, 0x00,
  0xf4, 0xff, 0xff, 0xff, 0x19, 0x00, 0x00, 0x00, 0x00, 0x00, 0x00, 0x19,
  0x0c, 0x00, 0x0c, 0x00, 0x0b, 0x00, 0x00, 0x00, 0x00, 0x00, 0x04, 0x00,
  0x0c, 0x00, 0x00, 0x00, 0x09, 0x00, 0x00, 0x00, 0x00, 0x00, 0x00, 0x09
};
unsigned int model_len = 3516;
